{"version":"1.0","truncation":null,"padding":null,"added_tokens":[{"id":0,"special":true,"content":"<UNK>","single_word":false,"lstrip":false,"rstrip":false,"normalized":false},{"id":1,"special":true,"content":"<SEP>","single_word":false,"lstrip":false,"rstrip":false,"normalized":false},{"id":2,"special":true,"content":"<MASK>","single_word":false,"lstrip":false,"rstrip":false,"normalized":false},{"id":3,"special":true,"content":"<CLS>","single_word":false,"lstrip":false,"rstrip":false,"normalized":false}],"normalizer":{"type":"NFKC"},"pre_tokenizer":{"type":"Whitespace"},"post_processor":null,"decoder":null,"model":{"type":"BPE","dropout":null,"unk_token":"<UNK>","continuing_subword_prefix":null,"end_of_word_suffix":null,"fuse_unk":false,"vocab":{"<UNK>":0,"<SEP>":1,"<MASK>":2,"<CLS>":3,"!":4,"\"":5,"#":6,"$":7,"%":8,"&":9,"'":10,"(":11,")":12,"*":13,"+":14,",":15,"-":16,".":17,"/":18,"0":19,"1":20,"2":21,"3":22,"4":23,"5":24,"6":25,"7":26,"8":27,"9":28,":":29,";":30,"<":31,">":32,"?":33,"@":34,"A":35,"B":36,"C":37,"D":38,"E":39,"F":40,"G":41,"H":42,"I":43,"J":44,"K":45,"L":46,"M":47,"N":48,"O":49,"P":50,"Q":51,"R":52,"S":53,"T":54,"U":55,"V":56,"W":57,"X":58,"Y":59,"Z":60,"[":61,"]":62,"`":63,"a":64,"b":65,"c":66,"d":67,"e":68,"f":69,"g":70,"h":71,"i":72,"j":73,"k":74,"l":75,"m":76,"n":77,"o":78,"p":79,"q":80,"r":81,"s":82,"t":83,"u":84,"v":85,"w":86,"x":87,"y":88,"z":89,"~":90,"§":91,"«":92,"¬":93,"°":94,"·":95,"»":96,"¿":97,"Á":98,"Ã":99,"Ä":100,"É":101,"Ì":102,"Ñ":103,"Ó":104,"Ô":105,"Õ":106,"Ö":107,"×":108,"Ü":109,"ß":110,"à":111,"á":112,"â":113,"ã":114,"ä":115,"ç":116,"è":117,"é":118,"ë":119,"ì":120,"í":121,"ï":122,"ñ":123,"ó":124,"ô":125,"ö":126,"ø":127,"ü":128,"ā":129,"ć":130,"Ċ":131,"č":132,"Đ":133,"Ė":134,"ě":135,"ğ":136,"Ġ":137,"Ģ":138,"ģ":139,"ī":140,"ĭ":141,"ĵ":142,"Ļ":143,"ľ":144,"Ł":145,"ł":146,"ň":147,"Ŋ":148,"Ō":149,"ō":150,"œ":151,"ŝ":152,"ş":153,"Š":154,"š":155,"Ţ":156,"ţ":157,"ū":158,"Ű":159,"ŷ":160,"Ÿ":161,"Ż":162,"ż":163,"Ž":164,"ž":165,"Ƒ":166,"Ɩ":167,"Ɨ":168,"ƞ":169,"Ƥ":170,"ƥ":171,"ƭ":172,"Ư":173,"Ʋ":174,"ƹ":175,"ǖ":176,"ǘ":177,"Ǯ":178,"ǹ":179,"ș":180,"ȝ":181,"ȟ":182,"ȩ":183,"Ʌ":184,"ɑ":185,"ɘ":186,"ɠ":187,"ɢ":188,"ɧ":189,"ɬ":190,"ʤ":191,"ʿ":192,"ˁ":193,"˂":194,"ˈ":195,"˗":196,"̂":197,"̃":198,"̄":199,"̇":200,"̊":201,"̋":202,"̎":203,"̔":204,"̕":205,"̣":206,"͂":207,"͔":208,"Ώ":209,"Β":210,"Δ":211,"Υ":212,"Χ":213,"Ϊ":214,"έ":215,"ί":216,"γ":217,"δ":218,"ν":219,"π":220,"σ":221,"χ":222,"Ϙ":223,"ϙ":224,"ϸ":225,"Ћ":226,"Ќ":227,"А":228,"Р":229,"У":230,"Ф":231,"Х":232,"Ч":233,"Ю":234,"в":235,"ж":236,"з":237,"к":238,"л":239,"о":240,"ь":241,"ј":242,"ѫ":243,"Ѳ":244,"ѳ":245,"҂":246,"ҍ":247,"ҡ":248,"Ҫ":249,"ү":250,"ҳ":251,"ҵ":252,"һ":253,"Ҽ":254,"Ӏ":255,"ӂ":256,"Ӕ":257,"ә":258,"Ӝ":259,"ө":260,"ӱ":261,"Ԁ":262,"Ԛ":263,"Դ":264,"Ե":265,"Ծ":266,"Ջ":267,"Ց":268,"Փ":269,"՛":270,"՟":271,"ը":272,"ժ":273,"լ":274,"կ":275,"հ":276,"մ":277,"յ":278,"ջ":279,"ր":280,"֔":281,"֧":282,"֪":283,"֫":284,"ֱ":285,"ֲ":286,"׀":287,"ׅ":288,"ב":289,"ד":290,"פ":291,"ת":292,"؋":293,"؛":294,"؟":295,"ي":296,"ً":297,"ُ":298,"ِ":299,"ړ":300,"ڠ":301,"ں":302,"ڻ":303,"ۈ":304,"۰":305,"۳":306,"۴":307,"۶":308,"ܐ":309,"ܒ":310,"ܕ":311,"ܗ":312,"ܘ":313,"ܚ":314,"ܡ":315,"ܢ":316,"ܪ":317,"ݙ":318,"ނ":319,"ރ":320,"އ":321,"ދ":322,"ތ":323,"ގ":324,"ޔ":325,"ަ":326,"ި":327,"ު":328,"ޫ":329,"ެ":330,"ޮ":331,"ް":332,"࠳":333,"࣭":334,"आ":335,"उ":336,"ऊ":337,"क":338,"ट":339,"ड":340,"ण":341,"ध":342,"श":343,"ी":344,"॑":345,"ঈ":346,"ঙ":347,"ঞ":348,"ত":349,"থ":350,"য":351,"শ":352,"ষ":353,"হ":354,"্":355,"ਙ":356,"ਣ":357,"ਬ":358,"ਰ":359,"આ":360,"ટ":361,"ડ":362,"ણ":363,"દ":364,"ભ":365,"ર":366,"વ":367,"િ":368,"ી":369,"ૐ":370,"କ":371,"ଜ":372,"ତ":373,"ନ":374,"ବ":375,"ମ":376,"ଳ":377,"ା":378,"ି":379,"ୋ":380,"୍":381,"ஆ":382,"எ":383,"ட":384,"ந":385,"ல":386,"ள":387,"ழ":388,"ூ":389,"ொ":390,"ఆ":391,"క":392,"గ":393,"చ":394,"జ":395,"డ":396,"ణ":397,"త":398,"ద":399,"ప":400,"భ":401,"మ":402,"ల":403,"వ":404,"ి":405,"ీ":406,"ూ":407,"ొ":408,"ో":409,"ಆ":410,"ಓ":411,"ಗ":412,"ಚ":413,"ಜ":414,"ಣ":415,"ದ":416,"ನ":417,"ಭ":418,"ಮ":419,"ರ":420,"ಲ":421,"ವ":422,"ಾ":423,"ಿ":424,"ೆ":425,"್":426,"ം":427,"ക":428,"ഗ":429,"ച":430,"ഞ":431,"ട":432,"ണ":433,"ന":434,"പ":435,"മ":436,"ര":437,"വ":438,"ാ":439,"ു":440,"േ":441,"ോ":442,"്":443,"ං":444,"අ":445,"ඉ":446,"ඩ":447,"ද":448,"ප":449,"බ":450,"ම":451,"ල":452,"ු":453,"ො":454,"ෝ":455,"ง":456,"ช":457,"ฐ":458,"ผ":459,"ฟ":460,"ษ":461,"ะ":462,"ี":463,"ุ":464,"ู":465,"เ":466,"ไ":467,"ຄ":468,"ຍ":469,"ດ":470,"ຕ":471,"ມ":472,"ລ":473,"ວ":474,"ສ":475,"ອ":476,"ະ":477,"າ":478,"ື":479,"ົ":480,"ເ":481,"້":482,"ໍ":483,"༺":484,"༻":485,"ཀ":486,"ཕ":487,"ཚ":488,"ལ":489,"ུ":490,"ྗ":491,"ྫ":492,"စ":493,"မ":494,"ယ":495,"ရ":496,"ျ":497,"რ":498,"ქ":499,"ყ":500,"ᄀ":501,"ᄁ":502,"ᄄ":503,"ᄇ":504,"ᄉ":505,"ᄋ":506,"ᄏ":507,"ᅄ":508,"ᅲ":509,"ᅳ":510,"ህ":511,"ሊ":512,"ል":513,"ሐ":514,"መ":515,"ማ":516,"ሥ":517,"ረ":518,"ሳ":519,"በ":520,"ቤ":521,"ብ":522,"ት":523,"ቶ":524,"ኔ":525,"ኘ":526,"ኢ":527,"ዘ":528,"ዛ":529,"ዜ":530,"የ":531,"ያ":532,"ይ":533,"ዮ":534,"ዳ":535,"ጀ":536,"ጅ":537,"ገ":538,"ግ":539,"ጎ":540,"ጝ":541,"ጟ":542,"ጠ":543,"ጭ":544,"ጵ":545,"ጽ":546,"ፍ":547,"Ꭲ":548,"Ꭴ":549,"Ꭸ":550,"Ꭹ":551,"Ꭺ":552,"Ꮃ":553,"Ꮎ":554,"Ꮤ":555,"Ꮳ":556,"ᐃ":557,"ᐄ":558,"ᐋ":559,"ᐤ":560,"ᐦ":561,"ᐧ":562,"ᒋ":563,"ᓂ":564,"ᓄ":565,"ᕙ":566,"ᖃ":567,"ᖓ":568,"ក":569,"ង":570,"ច":571,"ឆ":572,"ដ":573,"ណ":574,"ថ":575,"ន":576,"ព":577,"ម":578,"រ":579,"ល":580,"ស":581,"ា":582,"ិ":583,"ី":584,"ឹ":585,"ួ":586,"េ":587,"ោ":588,"ំ":589,"ះ":590,"័":591,"្":592,"៛":593,"ᠠ":594,"ᠡ":595,"ᠣ":596,"ᠥ":597,"ᠦ":598,"ᠧ":599,"ᠨ":600,"ᠪ":601,"ᠬ":602,"ᠰ":603,"ᠲ":604,"ᠳ":605,"ᠵ":606,"ᠷ":607,"ᮓ":608,"ᴂ":609,"ᴙ":610,"ᶏ":611,"ḃ":612,"ḋ":613,"Ḍ":614,"ḍ":615,"ḑ":616,"ḡ":617,"ḣ":618,"ḩ":619,"ḫ":620,"ḷ":621,"ḻ":622,"Ḿ":623,"Ṅ":624,"Ṕ":625,"Ṛ":626,"ṡ":627,"ṣ":628,"ṯ":629,"ṿ":630,"ẓ":631,"ẕ":632,"Ạ":633,"ẽ":634,"ể":635,"Ố":636,"ồ":637,"ἑ":638,"Ἔ":639,"Ἤ":640,"ἶ":641,"ὗ":642,"ὣ":643,"ὤ":644,"Ὤ":645,"ὺ":646,"ὼ":647,"ᾷ":648,"Ᾱ":649,"ῑ":650,"‐":651,"‒":652,"–":653,"—":654,"‖":655,"‘":656,"’":657,"‚":658,"“":659,"„":660,"‟":661,"′":662,"‹":663,"‿":664,"⁄":665,"₡":666,"₣":667,"€":668,"₭":669,"₱":670,"₴":671,"₵":672,"₽":673,"℘":674,"←":675,"↓":676,"↝":677,"↥":678,"↦":679,"↧":680,"↨":681,"⇈":682,"⇔":683,"⇛":684,"∋":685,"−":686,"∕":687,"∘":688,"∟":689,"∧":690,"∮":691,"∴":692,"≙":693,"≤":694,"≦":695,"≧":696,"⊗":697,"⊞":698,"⊡":699,"⌉":700,"⌊":701,"⌡":702,"⎪":703,"⏏":704,"⏳":705,"␀":706,"␄":707,"⓫":708,"┏":709,"┝":710,"┣":711,"┪":712,"┲":713,"╗":714,"╩":715,"▁":716,"▉":717,"■":718,"□":719,"△":720,"▻":721,"◗":722,"◙":723,"◾":724,"☀":725,"☕":726,"☘":727,"☝":728,"☪":729,"☺":730,"♁":731,"♌":732,"♡":733,"♥":734,"♫":735,"⚋":736,"⚓":737,"⚙":738,"✉":739,"✗":740,"✩":741,"✱":742,"✷":743,"❅":744,"❌":745,"❞":746,"❦":747,"➀":748,"➈":749,"➊":750,"➎":751,"➑":752,"➚":753,"➡":754,"➧":755,"➨":756,"➩":757,"➫":758,"⟨":759,"⟵":760,"⠙":761,"⪼":762,"⬇":763,"⭆":764,"⭐":765,"ⱱ":766,"ⲛ":767,"ⲟ":768,"ⴵ":769,"ⴷ":770,"ⴻ":771,"ⴾ":772,"ⵀ":773,"ⵌ":774,"ⵏ":775,"ⵒ":776,"ⵙ":777,"ⵜ":778,"ⵝ":779,"ⵡ":780,"々":781,"〆":782,"〇":783,"〒":784,"〞":785,"が":786,"ぐ":787,"げ":788,"じ":789,"っ":790,"ぬ":791,"ぱ":792,"べ":793,"ぽ":794,"ゃ":795,"り":796,"わ":797,"を":798,"ァ":799,"コ":800,"サ":801,"ジ":802,"セ":803,"チ":804,"テ":805,"ム":806,"ヽ":807,"ヾ":808,"ㇿ":809,"㶏":810,"䧴":811,"䬴":812,"䭬":813,"万":814,"上":815,"丙":816,"丝":817,"两":818,"中":819,"丸":820,"丽":821,"义":822,"之":823,"乎":824,"乐":825,"习":826,"乡":827,"买":828,"乳":829,"亀":830,"二":831,"互":832,"井":833,"亜":834,"亡":835,"享":836,"亶":837,"人":838,"仁":839,"仆":840,"仏":841,"他":842,"仙":843,"仝":844,"份":845,"会":846,"伝":847,"伯":848,"佑":849,"何":850,"佗":851,"余":852,"佛":853,"佰":854,"依":855,"侮":856,"侯":857,"係":858,"信":859,"修":860,"俱":861,"俵":862,"個":863,"候":864,"借":865,"债":866,"值":867,"停":868,"偿":869,"像":870,"僚":871,"允":872,"充":873,"兑":874,"兒":875,"兗":876,"党":877,"入":878,"內":879,"六":880,"冈":881,"冉":882,"冠":883,"冯":884,"况":885,"几":886,"凧":887,"出":888,"刀":889,"刃":890,"刅":891,"分":892,"刊":893,"別":894,"券":895,"刹":896,"刺":897,"剂":898,"剛":899,"剰":900,"創":901,"劃":902,"劇":903,"功":904,"加":905,"効":906,"勐":907,"勧":908,"勳":909,"包":910,"匠":911,"匹":912,"协":913,"卓":914,"協":915,"占":916,"卦":917,"印":918,"即":919,"卵":920,"卿":921,"叁":922,"參":923,"又":924,"叔":925,"变":926,"叢":927,"叫":928,"合":929,"后":930,"吐":931,"吟":932,"吠":933,"启":934,"吳":935,"呂":936,"呆":937,"呉":938,"告":939,"呐":940,"呑":941,"味":942,"呻":943,"呼":944,"咀":945,"哀":946,"哇":947,"响":948,"哦":949,"哨":950,"哪":951,"唢":952,"唬":953,"唱":954,"啟":955,"喃":956,"喜":957,"営":958,"喻":959,"嗎":960,"嘴":961,"嘿":962,"噺":963,"嚴":964,"囑":965,"团":966,"囲":967,"図":968,"围":969,"囿":970,"圖":971,"址":972,"坊":973,"坑":974,"块":975,"坤":976,"坦":977,"垣":978,"垦":979,"埋":980,"基":981,"堃":982,"堅":983,"堕":984,"堪":985,"場":986,"塑":987,"塔":988,"塚":989,"墙":990,"墨":991,"壬":992,"壶":993,"壹":994,"处":995,"夜":996,"大":997,"天":998,"头":999,"夹":1000,"奋":1001,"奏":1002,"契":1003,"奚":1004,"奥":1005,"女":1006,"奶":1007,"如":1008,"妇":1009,"妓":1010,"妹":1011,"姆":1012,"姑":1013,"姓":1014,"姚":1015,"姬":1016,"姳":1017,"姻":1018,"姿":1019,"威":1020,"娄":1021,"娘":1022,"娜":1023,"娶":1024,"婆":1025,"嫩":1026,"孚":1027,"孝":1028,"孟":1029,"孤":1030,"孩":1031,"孪":1032,"它":1033,"安":1034,"宙":1035,"宛":1036,"実":1037,"容":1038,"宽":1039,"宾":1040,"寂":1041,"寅":1042,"富":1043,"實":1044,"審":1045,"寫":1046,"寮":1047,"射":1048,"專":1049,"尉":1050,"尊":1051,"少":1052,"尽":1053,"屈":1054,"岳":1055,"峪":1056,"峻":1057,"嵐":1058,"嶋":1059,"嶽":1060,"巍":1061,"巨":1062,"帕":1063,"師":1064,"帯":1065,"帽":1066,"幅":1067,"干":1068,"并":1069,"床":1070,"库":1071,"底":1072,"座":1073,"廉":1074,"廌":1075,"廖":1076,"廣":1077,"弓":1078,"弱":1079,"強":1080,"弹":1081,"强":1082,"彙":1083,"彧":1084,"径":1085,"徒":1086,"従":1087,"循":1088,"心":1089,"必":1090,"忙":1091,"応":1092,"忧":1093,"怎":1094,"怖":1095,"怨":1096,"恐":1097,"恕":1098,"恨":1099,"息":1100,"悝":1101,"悦":1102,"悬":1103,"惊":1104,"惕":1105,"惜":1106,"惟":1107,"愍":1108,"感":1109,"慈":1110,"慕":1111,"慢":1112,"憚":1113,"憨":1114,"憫":1115,"憲":1116,"憶":1117,"應":1118,"懷":1119,"戈":1120,"戒":1121,"戦":1122,"截":1123,"房":1124,"扁":1125,"扇":1126,"扎":1127,"扑":1128,"扬":1129,"折":1130,"抬":1131,"抯":1132,"抱":1133,"抹":1134,"押":1135,"抽":1136,"拇":1137,"拍":1138,"拏":1139,"拔":1140,"拖":1141,"拘":1142,"招":1143,"挂":1144,"挨":1145,"捌":1146,"捍":1147,"捐":1148,"捡":1149,"换":1150,"掌":1151,"探":1152,"描":1153,"搭":1154,"携":1155,"摔":1156,"摘":1157,"摧":1158,"摩":1159,"撃":1160,"撒":1161,"撤":1162,"據":1163,"攸":1164,"敬":1165,"文":1166,"斈":1167,"斌":1168,"斗":1169,"料":1170,"斛":1171,"於":1172,"旋":1173,"旗":1174,"日":1175,"旭":1176,"旷":1177,"映":1178,"昧":1179,"晤":1180,"普":1181,"暖":1182,"曆":1183,"曉":1184,"曖":1185,"曝":1186,"曹":1187,"朋":1188,"朗":1189,"朦":1190,"朴":1191,"朵":1192,"机":1193,"杆":1194,"李":1195,"材":1196,"村":1197,"条":1198,"杭":1199,"板":1200,"枚":1201,"柏":1202,"某":1203,"柒":1204,"柔":1205,"柳":1206,"梆":1207,"梗":1208,"梧":1209,"械":1210,"梵":1211,"棋":1212,"棘":1213,"検":1214,"楞":1215,"楼":1216,"榄":1217,"榈":1218,"様":1219,"樂":1220,"樫":1221,"橄":1222,"機":1223,"橫":1224,"櫛":1225,"欧":1226,"款":1227,"歆":1228,"歌":1229,"步":1230,"武":1231,"歩":1232,"殉":1233,"殤":1234,"殲":1235,"毅":1236,"每":1237,"氨":1238,"汊":1239,"汗":1240,"汤":1241,"汪":1242,"沅":1243,"沐":1244,"沙":1245,"沱":1246,"河":1247,"沾":1248,"泥":1249,"泪":1250,"泰":1251,"洗":1252,"洙":1253,"洞":1254,"津":1255,"洲":1256,"洼":1257,"涂":1258,"消":1259,"涛":1260,"涞":1261,"涯":1262,"淑":1263,"淡":1264,"淨":1265,"淮":1266,"深":1267,"混":1268,"渝":1269,"渠":1270,"温":1271,"渭":1272,"港":1273,"湖":1274,"湯":1275,"溝":1276,"滅":1277,"滑":1278,"滤":1279,"滩":1280,"演":1281,"漫":1282,"漯":1283,"潍":1284,"潘":1285,"潛":1286,"潭":1287,"潸":1288,"澡":1289,"澤":1290,"澳":1291,"濃":1292,"濡":1293,"瀋":1294,"瀚":1295,"瀰":1296,"灼":1297,"炮":1298,"烈":1299,"烤":1300,"烦":1301,"热":1302,"烹":1303,"焊":1304,"焼":1305,"煕":1306,"熟":1307,"燈":1308,"燒":1309,"燕":1310,"燥":1311,"爱":1312,"父":1313,"爾":1314,"牆":1315,"片":1316,"牌":1317,"牡":1318,"犬":1319,"狀":1320,"狆":1321,"狱":1322,"献":1323,"獎":1324,"獣":1325,"獨":1326,"玄":1327,"率":1328,"玉":1329,"玖":1330,"玻":1331,"珙":1332,"班":1333,"珲":1334,"琅":1335,"理":1336,"琵":1337,"琶":1338,"瑁":1339,"瑗":1340,"瑰":1341,"璃":1342,"璨":1343,"瓢":1344,"瓯":1345,"瓶":1346,"甄":1347,"産":1348,"甩":1349,"甫":1350,"画":1351,"番":1352,"疍":1353,"疵":1354,"癒":1355,"皈":1356,"皋":1357,"皑":1358,"盆":1359,"监":1360,"監":1361,"盱":1362,"眉":1363,"眙":1364,"矿":1365,"硐":1366,"碎":1367,"磨":1368,"祁":1369,"祈":1370,"祖":1371,"祠":1372,"禁":1373,"禮":1374,"禽":1375,"禾":1376,"秉":1377,"种":1378,"秦":1379,"稗":1380,"種":1381,"稲":1382,"稽":1383,"穌":1384,"穎":1385,"穴":1386,"窩":1387,"競":1388,"竽":1389,"笑":1390,"笛":1391,"符":1392,"筆":1393,"筋":1394,"算":1395,"篇":1396,"簇":1397,"簸":1398,"籃":1399,"籠":1400,"粗":1401,"粟":1402,"粤":1403,"糊":1404,"紀":1405,"紅":1406,"紆":1407,"純":1408,"索":1409,"紫":1410,"累":1411,"経":1412,"絡":1413,"続":1414,"綜":1415,"緝":1416,"緯":1417,"縊":1418,"繚":1419,"纯":1420,"纱":1421,"纵":1422,"纹":1423,"线":1424,"绑":1425,"绕":1426,"绵":1427,"缓":1428,"缸":1429,"罩":1430,"罪":1431,"羅":1432,"羊":1433,"羡":1434,"羽":1435,"翦":1436,"老":1437,"耦":1438,"耶":1439,"耽":1440,"聊":1441,"聘":1442,"聯":1443,"聴":1444,"股":1445,"肥":1446,"胁":1447,"胃":1448,"胆":1449,"胜":1450,"胧":1451,"胰":1452,"脉":1453,"脸":1454,"腿":1455,"膕":1456,"膺":1457,"臏":1458,"臧":1459,"臨":1460,"致":1461,"臺":1462,"舁":1463,"興":1464,"舎":1465,"艇":1466,"艮":1467,"艾":1468,"芝":1469,"芭":1470,"花":1471,"芸":1472,"芽":1473,"苍":1474,"苦":1475,"苾":1476,"茂":1477,"茎":1478,"荊":1479,"荒":1480,"荞":1481,"莊":1482,"莫":1483,"莲":1484,"菇":1485,"菜":1486,"菴":1487,"萌":1488,"萬":1489,"萼":1490,"著":1491,"葭":1492,"葵":1493,"蒂":1494,"蒜":1495,"蒲":1496,"蒼":1497,"蓉":1498,"蓓":1499,"蓬":1500,"蔣":1501,"蔫":1502,"蔵":1503,"蔺":1504,"藏":1505,"藓":1506,"藥":1507,"蘭":1508,"虞":1509,"虢":1510,"蚜":1511,"蛇":1512,"蜀":1513,"蜚":1514,"蜜":1515,"螂":1516,"融":1517,"螺":1518,"蟑":1519,"蟹":1520,"补":1521,"裂":1522,"補":1523,"裝":1524,"裡":1525,"西":1526,"覃":1527,"規":1528,"覧":1529,"親":1530,"观":1531,"览":1532,"言":1533,"訢":1534,"詞":1535,"詣":1536,"試":1537,"詩":1538,"詹":1539,"誤":1540,"誼":1541,"諤":1542,"謐":1543,"謝":1544,"譜":1545,"議":1546,"譲":1547,"计":1548,"讣":1549,"让":1550,"训":1551,"访":1552,"词":1553,"诗":1554,"诚":1555,"话":1556,"语":1557,"说":1558,"谍":1559,"谓":1560,"谛":1561,"谭":1562,"豪":1563,"貝":1564,"貞":1565,"財":1566,"貢":1567,"貳":1568,"費":1569,"貿":1570,"賀":1571,"質":1572,"賴":1573,"購":1574,"贊":1575,"贡":1576,"责":1577,"账":1578,"贫":1579,"贰":1580,"贷":1581,"费":1582,"赎":1583,"赔":1584,"赖":1585,"赚":1586,"赤":1587,"走":1588,"赶":1589,"越":1590,"足":1591,"跃":1592,"距":1593,"践":1594,"踊":1595,"身":1596,"躺":1597,"転":1598,"軸":1599,"軼":1600,"輟":1601,"輪":1602,"輯":1603,"辉":1604,"辰":1605,"迁":1606,"迅":1607,"迦":1608,"迫":1609,"述":1610,"迷":1611,"追":1612,"逆":1613,"逞":1614,"速":1615,"造":1616,"連":1617,"逻":1618,"遂":1619,"遇":1620,"遍":1621,"過":1622,"遮":1623,"還":1624,"邑":1625,"邗":1626,"邳":1627,"邵":1628,"邸":1629,"邹":1630,"郊":1631,"郑":1632,"郝":1633,"部":1634,"郭":1635,"郷":1636,"鄭":1637,"鄱":1638,"酆":1639,"酗":1640,"酱":1641,"酵":1642,"醫":1643,"释":1644,"釜":1645,"鈥":1646,"鉛":1647,"鉾":1648,"鋍":1649,"鋐":1650,"錄":1651,"錢":1652,"錦":1653,"録":1654,"鍾":1655,"鏡":1656,"鐘":1657,"鑑":1658,"鑰":1659,"钱":1660,"钻":1661,"铅":1662,"铜":1663,"铵":1664,"错":1665,"锛":1666,"锥":1667,"锦":1668,"镇":1669,"镖":1670,"長":1671,"长":1672,"開":1673,"閏":1674,"間":1675,"閟":1676,"関":1677,"闡":1678,"闰":1679,"闹":1680,"闽":1681,"阜":1682,"阮":1683,"防":1684,"际":1685,"陇":1686,"陋":1687,"降":1688,"隅":1689,"隐":1690,"隗":1691,"際":1692,"隱":1693,"隶":1694,"隷":1695,"难":1696,"雀":1697,"雏":1698,"雕":1699,"雖":1700,"雞":1701,"雪":1702,"雯":1703,"雲":1704,"霄":1705,"震":1706,"靖":1707,"静":1708,"非":1709,"靠":1710,"面":1711,"韓":1712,"韭":1713,"頁":1714,"題":1715,"顔":1716,"類":1717,"顧":1718,"顯":1719,"页":1720,"须":1721,"颇":1722,"题":1723,"额":1724,"颽":1725,"飞":1726,"饗":1727,"饪":1728,"馏":1729,"馮":1730,"駅":1731,"騭":1732,"驤":1733,"驱":1734,"驶":1735,"骂":1736,"骇":1737,"验":1738,"骏":1739,"骑":1740,"魄":1741,"魏":1742,"魚":1743,"魯":1744,"鰀":1745,"鰎":1746,"鱼":1747,"鲤":1748,"鴻":1749,"鵜":1750,"鸳":1751,"鸽":1752,"鹅":1753,"鹘":1754,"鹤":1755,"鹰":1756,"麓":1757,"麦":1758,"麵":1759,"黑":1760,"黔":1761,"黡":1762,"黨":1763,"黯":1764,"齐":1765,"齢":1766,"齿":1767,"ꆃ":1768,"꙰":1769,"Ꞌ":1770,"ꞔ":1771,"ꯁ":1772,"ꯄ":1773,"ꯔ":1774,"ꯠ":1775,"ꯡ":1776,"ꯣ":1777,"ꯤ":1778,"ꯥ":1779,"각":1780,"감":1781,"강":1782,"거":1783,"걸":1784,"것":1785,"게":1786,"격":1787,"결":1788,"경":1789,"계":1790,"과":1791,"괴":1792,"군":1793,"굴":1794,"궁":1795,"권":1796,"그":1797,"근":1798,"기":1799,"까":1800,"깨":1801,"끝":1802,"나":1803,"난":1804,"날":1805,"남":1806,"냉":1807,"널":1808,"노":1809,"놈":1810,"달":1811,"담":1812,"덕":1813,"데":1814,"돌":1815,"되":1816,"된":1817,"둑":1818,"듣":1819,"딩":1820,"뛰":1821,"랑":1822,"래":1823,"랜":1824,"략":1825,"러":1826,"럭":1827,"런":1828,"럽":1829,"레":1830,"려":1831,"령":1832,"롯":1833,"룹":1834,"률":1835,"륭":1836,"르":1837,"른":1838,"맷":1839,"머":1840,"먹":1841,"먼":1842,"멀":1843,"멋":1844,"메":1845,"멸":1846,"묬":1847,"물":1848,"므":1849,"믄":1850,"바":1851,"반":1852,"발":1853,"밤":1854,"배":1855,"밸":1856,"법":1857,"병":1858,"복":1859,"북":1860,"불":1861,"뷔":1862,"비":1863,"빅":1864,"빨":1865,"쁜":1866,"사":1867,"삭":1868,"산":1869,"상":1870,"생":1871,"설":1872,"속":1873,"솔":1874,"순":1875,"술":1876,"슈":1877,"슨":1878,"싶":1879,"쏭":1880,"악":1881,"알":1882,"양":1883,"어":1884,"업":1885,"엔":1886,"엘":1887,"여":1888,"열":1889,"염":1890,"예":1891,"옥":1892,"와":1893,"왕":1894,"우":1895,"움":1896,"워":1897,"율":1898,"을":1899,"응":1900,"읫":1901,"인":1902,"일":1903,"자":1904,"절":1905,"접":1906,"조":1907,"좋":1908,"준":1909,"중":1910,"즈":1911,"증":1912,"짜":1913,"쭉":1914,"차":1915,"찬":1916,"참":1917,"창":1918,"천":1919,"철":1920,"최":1921,"추":1922,"치":1923,"코":1924,"쿠":1925,"큦":1926,"클":1927,"키":1928,"킬":1929,"타":1930,"탄":1931,"택":1932,"터":1933,"토":1934,"투":1935,"툼":1936,"티":1937,"파":1938,"팔":1939,"퍼":1940,"편":1941,"포":1942,"표":1943,"푸":1944,"하":1945,"학":1946,"한":1947,"할":1948,"항":1949,"해":1950,"행":1951,"향":1952,"형":1953,"환":1954,"회":1955,"효":1956,"횩":1957,"훌":1958,"﴾":1959,"︎":1960,"𐀭":1961,"𐐔":1962,"𐐯":1963,"𐐲":1964,"𐐻":1965,"𐑆":1966,"𐑉":1967,"𑄁":1968,"𑄝":1969,"𑄢":1970,"𑄥":1971,"𒂙":1972,"🇦":1973,"🇧":1974,"🇬":1975,"🇹":1976,"🇺":1977,"🍃":1978,"🍍":1979,"🍪":1980,"🎸":1981,"🎾":1982,"🏂":1983,"🏆":1984,"🏽":1985,"🐧":1986,"👇":1987,"👉":1988,"👑":1989,"👛":1990,"👥":1991,"👧":1992,"👩":1993,"👫":1994,"💡":1995,"💤":1996,"💻":1997,"💼":1998,"📢":1999,"📨":2000,"🔊":2001,"🔎":2002,"🔝":2003,"🔢":2004,"🔴":2005,"🕹":2006,"🗃":2007,"🗽":2008,"😂":2009,"😅":2010,"😍":2011,"😎":2012,"😚":2013,"😡":2014,"😴":2015,"🙁":2016,"🙈":2017,"🤸":2018,"🥵":2019,"🦕":2020,"🦖":2021,"𡦂":2022,"en":2023,"er":2024,"ch":2025,"in":2026,"EP":2027,"SEP":2028,"st":2029,"an":2030,"th":2031,"ie":2032,"om":2033,"as":2034,"ich":2035,"ar":2036,"at":2037,"ou":2038,"is":2039,"on":2040,"es":2041,"ein":2042,"te":2043,"Tom":2044,"re":2045,"ll":2046,"un":2047,"it":2048,"to":2049,"ge":2050,"the":2051,"be":2052,"or":2053,"he":2054,"au":2055,"le":2056,"ing":2057,"se":2058,"de":2059,"ir":2060,"ha":2061,"ist":2062,"you":2063,"der":2064,"al":2065,"icht":2066,"zu":2067,"sch":2068,"den":2069,"ver":2070,"me":2071,"of":2072,"Ich":2073,"ig":2074,"ve":2075,"nicht":2076,"hr":2077,"no":2078,"die":2079,"hat":2080,"ke":2081,"das":2082,"im":2083,"ach":2084,"eine":2085,"and":2086,"we":2087,"ne":2088,"ter":2089,"was":2090,"gen":2091,"ten":2092,"ld":2093,"all":2094,"ro":2095,"ur":2096,"ere":2097,"am":2098,"ab":2099,"ay":2100,"do":2101,"Mar":2102,"wi":2103,"ut":2104,"ed":2105,"ck":2106,"The":2107,"und":2108,"lo":2109,"so":2110,"us":2111,"li":2112,"ag":2113,"ben":2114,"Sie":2115,"that":2116,"tr":2117,"auf":2118,"sen":2119,"um":2120,"du":2121,"for":2122,"id":2123,"sp":2124,"et":2125,"hen":2126,"go":2127,"ann":2128,"ti":2129,"ho":2130,"ber":2131,"war":2132,"ür":2133,"lich":2134,"his":2135,"ce":2136,"ht":2137,"ung":2138,"ent":2139,"ad":2140,"ier":2141,"fe":2142,"il":2143,"sich":2144,"Er":2145,"ste":2146,"mit":2147,"dass":2148,"einen":2149,"Die":2150,"fr":2151,"ind":2152,"one":2153,"aus":2154,"wir":2155,"are":2156,"He":2157,"uch":2158,"Sch":2159,"We":2160,"hn":2161,"ly":2162,"have":2163,"Mary":2164,"ome":2165,"ion":2166,"her":2167,"chen":2168,"ould":2169,"wer":2170,"not":2171,"sa":2172,"with":2173,"out":2174,"Das":2175,"man":2176,"mo":2177,"sie":2178,"ges":2179,"wor":2180,"men":2181,"ia":2182,"ze":2183,"You":2184,"lt":2185,"mer":2186,"can":2187,"von":2188,"bo":2189,"ok":2190,"my":2191,"la":2192,"ant":2193,"lie":2194,"here":2195,"habe":2196,"pp":2197,"wo":2198,"ger":2199,"br":2200,"ther":2201,"now":2202,"very":2203,"ess":2204,"dem":2205,"Es":2206,"mir":2207,"ft":2208,"Maria":2209,"lan":2210,"isch":2211,"als":2212,"enn":2213,"für":2214,"this":2215,"It":2216,"wie":2217,"ic":2218,"ol":2219,"will":2220,"thing":2221,"your":2222,"über":2223,"Fr":2224,"ak":2225,"kann":2226,"Ge":2227,"pr":2228,"od":2229,"mich":2230,"op":2231,"Wir":2232,"ust":2233,"like":2234,"end":2235,"has":2236,"ink":2237,"sein":2238,"gl":2239,"fa":2240,"St":2241,"Der":2242,"pe":2243,"She":2244,"vor":2245,"if":2246,"ern":2247,"don":2248,"ön":2249,"get":2250,"hl":2251,"uns":2252,"ma":2253,"kom":2254,"ite":2255,"sind":2256,"ight":2257,"bt":2258,"know":2259,"up":2260,"vie":2261,"ill":2262,"gr":2263,"any":2264,"einem":2265,"ain":2266,"che":2267,"fen":2268,"da":2269,"sel":2270,"än":2271,"mach":2272,"An":2273,"Ver":2274,"ät":2275,"ap":2276,"ass":2277,"ihr":2278,"did":2279,"des":2280,"haben":2281,"dr":2282,"In":2283,"Du":2284,"day":2285,"ble":2286,"sh":2287,"Le":2288,"ute":2289,"him":2290,"age":2291,"ow":2292,"je":2293,"oun":2294,"ate":2295,"wird":2296,"iß":2297,"ör":2298,"ac":2299,"had":2300,"po":2301,"ation":2302,"ex":2303,"nach":2304,"ahr":2305,"This":2306,"ue":2307,"our":2308,"ück":2309,"ort":2310,"way":2311,"oug":2312,"af":2313,"ive":2314,"En":2315,"ug":2316,"what":2317,"bin":2318,"want":2319,"by":2320,"Be":2321,"but":2322,"noch":2323,"dich":2324,"time":2325,"think":2326,"tz":2327,"gan":2328,"some":2329,"sehr":2330,"ank":2331,"einer":2332,"Re":2333,"ul":2334,"wur":2335,"ide":2336,"mus":2337,"What":2338,"about":2339,"ong":2340,"immer":2341,"lle":2342,"com":2343,"fo":2344,"from":2345,"Do":2346,"ted":2347,"ih":2348,"nen":2349,"she":2350,"cht":2351,"Ar":2352,"dir":2353,"pro":2354,"Un":2355,"ien":2356,"art":2357,"Au":2358,"ure":2359,"ear":2360,"ake":2361,"igen":2362,"rie":2363,"sed":2364,"ast":2365,"mal":2366,"con":2367,"Ze":2368,"ser":2369,"good":2370,"ally":2371,"fin":2372,"does":2373,"rei":2374,"ked":2375,"hin":2376,"hal":2377,"ik":2378,"soll":2379,"ave":2380,"zen":2381,"gut":2382,"bei":2383,"ame":2384,"ün":2385,"sag":2386,"co":2387,"sten":2388,"las":2389,"kommen":2390,"were":2391,"ish":2392,"would":2393,"ob":2394,"see":2395,"ander":2396,"nur":2397,"wurde":2398,"el":2399,"per":2400,"pl":2401,"gu":2402,"ihn":2403,"more":2404,"kön":2405,"hatte":2406,"Was":2407,"Ein":2408,"ster":2409,"gehen":2410,"zt":2411,"ase":2412,"chte":2413,"gel":2414,"nie":2415,"aber":2416,"ses":2417,"read":2418,"werden":2419,"son":2420,"than":2421,"fer":2422,"acht":2423,"hier":2424,"etwas":2425,"mt":2426,"going":2427,"That":2428,"ause":2429,"ss":2430,"mehr":2431,"heit":2432,"dar":2433,"Wie":2434,"qu":2435,"bes":2436,"kl":2437,"zum":2438,"mö":2439,"zur":2440,"ven":2441,"ild":2442,"Zeit":2443,"gi":2444,"str":2445,"ack":2446,"who":2447,"such":2448,"ard":2449,"hel":2450,"been":2451,"gef":2452,"ry":2453,"My":2454,"off":2455,"wä":2456,"hör":2457,"said":2458,"inter":2459,"ise":2460,"spe":2461,"hy":2462,"there":2463,"got":2464,"ick":2465,"ts":2466,"iel":2467,"schon":2468,"didn":2469,"roß":2470,"ater":2471,"under":2472,"wür":2473,"weiß":2474,"gt":2475,"stu":2476,"dy":2477,"work":2478,"other":2479,"able":2480,"inn":2481,"say":2482,"viel":2483,"Wo":2484,"wenn":2485,"unter":2486,"ah":2487,"should":2488,"tun":2489,"üs":2490,"every":2491,"No":2492,"ought":2493,"They":2494,"ken":2495,"How":2496,"mein":2497,"ree":2498,"could":2499,"car":2500,"auch":2501,"need":2502,"iert":2503,"itt":2504,"Ges":2505,"There":2506,"ep":2507,"come":2508,"ren":2509,"ound":2510,"itte":2511,"keine":2512,"when":2513,"beit":2514,"su":2515,"tter":2516,".\"":2517,"ple":2518,"Fre":2519,"ru":2520,"diese":2521,"happ":2522,"Wenn":2523,"nte":2524,"ous":2525,"ige":2526,"ungen":2527,"Te":2528,"spr":2529,"llen":2530,"Bo":2531,"Sp":2532,"ople":2533,"fü":2534,"agen":2535,"stand":2536,"gesch":2537,"alk":2538,"ans":2539,"det":2540,"book":2541,"look":2542,"how":2543,"new":2544,"iend":2545,"anz":2546,"red":2547,"hast":2548,"wn":2549,"tell":2550,"iden":2551,"they":2552,"friend":2553,"ange":2554,"just":2555,"ct":2556,"urch":2557,"hät":2558,"hren":2559,"schen":2560,"bst":2561,"doesn":2562,"seine":2563,"wis":2564,"If":2565,"bl":2566,"ves":2567,"tion":2568,"lassen":2569,"people":2570,"Engl":2571,"ice":2572,"app":2573,"tet":2574,"ile":2575,"ese":2576,"self":2577,"Al":2578,"sehen":2579,"much":2580,"sagte":2581,"year":2582,"ihm":2583,"kt":2584,"Fe":2585,"groß":2586,"meine":2587,"pt":2588,"nichts":2589,"Se":2590,"machen":2591,"ine":2592,"ert":2593,"fore":2594,"gew":2595,"only":2596,"macht":2597,"Don":2598,"alle":2599,"bre":2600,"werde":2601,"würde":2602,"ful":2603,"Her":2604,"sam":2605,"glau":2606,"lau":2607,"tt":2608,"Men":2609,"star":2610,"them":2611,"ins":2612,"Mein":2613,"Jo":2614,"par":2615,"oder":2616,"fall":2617,"speak":2618,"aß":2619,"ieren":2620,"too":2621,"bis":2622,"pre":2623,"Kin":2624,"home":2625,"make":2626,"wa":2627,"ade":2628,"love":2629,"mand":2630,"take":2631,"War":2632,"bar":2633,"wr":2634,"ough":2635,"gibt":2636,"tel":2637,"many":2638,"keit":2639,"never":2640,"wh":2641,"ways":2642,"sagen":2643,"mar":2644,"gest":2645,"help":2646,"So":2647,"uss":2648,"gre":2649,"ving":2650,"esen":2651,"ity":2652,"vo":2653,"Pro":2654,"won":2655,"oney":2656,"really":2657,"hätte":2658,"muss":2659,"orgen":2660,"ied":2661,"ston":2662,"unden":2663,"play":2664,"ische":2665,"pa":2666,"llt":2667,"geb":2668,"äu":2669,"können":2670,"row":2671,"call":2672,"over":2673,"ri":2674,"ache":2675,"?\"":2676,"blem":2677,"Man":2678,"told":2679,"brau":2680,"fl":2681,"ever":2682,"ös":2683,"kon":2684,"kauf":2685,"sche":2686,"child":2687,"bu":2688,"zwe":2689,"schl":2690,"agt":2691,"Boston":2692,"eat":2693,"kein":2694,"Jahr":2695,"long":2696,"wieder":2697,"letz":2698,"cl":2699,"always":2700,"är":2701,"Arbeit":2702,"durch":2703,"ded":2704,"aft":2705,"halten":2706,"Is":2707,"müs":2708,"isn":2709,"again":2710,"dern":2711,"apan":2712,"etzt":2713,"ner":2714,"plan":2715,"alt":2716,"kam":2717,"Geld":2718,"viele":2719,"ihre":2720,"mag":2721,"lot":2722,"money":2723,"right":2724,"los":2725,"hne":2726,"alles":2727,"utter":2728,"iz":2729,"bist":2730,"lern":2731,"When":2732,"old":2733,"?“":2734,"Leben":2735,"into":2736,"best":2737,"iss":2738,"Why":2739,"back":2740,"Gr":2741,"tre":2742,"iter":2743,"euch":2744,"after":2745,"möchte":2746,"try":2747,"ging":2748,"isten":2749,"sto":2750,"last":2751,"bus":2752,"Nach":2753,"fu":2754,"thought":2755,"bro":2756,"scho":2757,"clo":2758,"fir":2759,"llte":2760,"ouse":2761,"well":2762,"bec":2763,"gerne":2764,".“":2765,"gle":2766,"esser":2767,"Buch":2768,"mon":2769,"lear":2770,"heute":2771,"made":2772,"Aus":2773,"Str":2774,"talk":2775,"hnen":2776,"pu":2777,"geben":2778,"fä":2779,"Th":2780,"gar":2781,"still":2782,"00":2783,"ench":2784,"gese":2785,"aum":2786,"spre":2787,"wen":2788,"bed":2789,"dam":2790,"something":2791,"fre":2792,"Ihr":2793,"Tag":2794,"room":2795,"Spr":2796,"äch":2797,"uck":2798,"French":2799,"Kinder":2800,"Japan":2801,"iger":2802,"two":2803,"body":2804,"richt":2805,"use":2806,"went":2807,"sho":2808,"wan":2809,"di":2810,"nis":2811,"cke":2812,"Can":2813,"Fl":2814,"glich":2815,"min":2816,"Mann":2817,"house":2818,"Haus":2819,"sit":2820,"anzös":2821,"find":2822,"Warum":2823,"ko":2824,"bitte":2825,"Schu":2826,"lange":2827,"must":2828,"Pr":2829,"De":2830,"pla":2831,"igt":2832,"put":2833,"Vor":2834,"aten":2835,"zie":2836,"word":2837,"müssen":2838,"doch":2839,"tor":2840,"ff":2841,"ler":2842,"cher":2843,"their":2844,"sol":2845,"ment":2846,"que":2847,"gesehen":2848,"atch":2849,"where":2850,"ittle":2851,"uer":2852,"night":2853,"anything":2854,"Are":2855,"ischen":2856,"ph":2857,"irl":2858,"Frau":2859,"Auf":2860,"reich":2861,"Br":2862,"spiel":2863,"hmen":2864,"einmal":2865,"rank":2866,"dieses":2867,"Freund":2868,"first":2869,"most":2870,"bring":2871,"geht":2872,"Tr":2873,"gab":2874,"ning":2875,"äd":2876,"ek":2877,"ty":2878,"little":2879,"happen":2880,"lang":2881,"klich":2882,"essen":2883,"schaft":2884,"tur":2885,"ip":2886,"ting":2887,"before":2888,"gesagt":2889,"Mon":2890,"hlen":2891,"girl":2892,"schein":2893,"zurück":2894,"bere":2895,"gend":2896,"kommt":2897,"wel":2898,"gegen":2899,"better":2900,"school":2901,"eing":2902,"eines":2903,"down":2904,"Ger":2905,"keinen":2906,"its":2907,"akes":2908,"atz":2909,"fee":2910,"years":2911,"igh":2912,"iff":2913,"Let":2914,"name":2915,"used":2916,"dis":2917,"test":2918,"anzösisch":2919,"gerade":2920,"Kön":2921,"ary":2922,"setz":2923,"ned":2924,"adt":2925,"Welt":2926,"today":2927,"ult":2928,"ies":2929,"achen":2930,"wahr":2931,"amil":2932,"wäre":2933,"em":2934,"ers":2935,"live":2936,"fi":2937,"three":2938,"Lie":2939,"dre":2940,"imm":2941,"bor":2942,"ließ":2943,"Did":2944,"Hause":2945,"Ple":2946,"net":2947,"steht":2948,"ready":2949,"Mutter":2950,"belie":2951,"doing":2952,"stehen":2953,"because":2954,"unde":2955,"wollte":2956,"ance":2957,"sm":2958,"schne":2959,"To":2960,"hard":2961,"weg":2962,"wissen":2963,"Französisch":2964,"Please":2965,"res":2966,"einf":2967,"children":2968,"Hast":2969,"achte":2970,"hand":2971,"fel":2972,"langu":2973,"ra":2974,"ci":2975,"Toms":2976,"coun":2977,"jetzt":2978,"seinen":2979,"drei":2980,"hre":2981,"üh":2982,"Wer":2983,"gst":2984,"zwei":2985,"ian":2986,"ungs":2987,"world":2988,"Where":2989,"cle":2990,"meinen":2991,"John":2992,"wirklich":2993,"davon":2994,"besser":2995,"care":2996,"erst":2997,"life":2998,"est":2999,"part":3000,"sei":3001,"gleich":3002,"Po":3003,"vis":3004,"ielt":3005,"zeit":3006,"Ber":3007,"Who":3008,"deine":3009,"pass":3010,"left":3011,"feel":3012,"Diese":3013,"gessen":3014,"unser":3015,"konnte":3016,"xt":3017,"tom":3018,"fast":3019,"waren":3020,"English":3021,"si":3022,"beg":3023,"sprechen":3024,"Ihnen":3025,"Auto":3026,"igkeit":3027,"seinem":3028,"ald":3029,"med":3030,"io":3031,"besch":3032,"pen":3033,"wohl":3034,"quest":3035,"give":3036,"ated":3037,"mother":3038,"ädchen":3039,"stay":3040,"lernen":3041,"dieser":3042,"All":3043,"Every":3044,"pas":3045,"sure":3046,"sicher":3047,"Gesch":3048,"Menschen":3049,"Dieses":3050,"ident":3051,"Have":3052,"Ist":3053,"inge":3054,"job":3055,"hau":3056,"hrer":3057,"hol":3058,"away":3059,"oft":3060,"hrt":3061,"selbst":3062,"pf":3063,"fahren":3064,"ye":3065,"ath":3066,"fol":3067,"ister":3068,"del":3069,"ited":3070,"angen":3071,"oren":3072,"einfach":3073,"lik":3074,"boy":3075,"ask":3076,"schw":3077,"weil":3078,"question":3079,"Meine":3080,"may":3081,"teil":3082,"ohne":3083,"vier":3084,"tern":3085,"ganz":3086,"Me":3087,"port":3088,"Mädchen":3089,"Unter":3090,"nah":3091,"glaube":3092,"Dieser":3093,"kenn":3094,"blei":3095,"Ne":3096,"father":3097,"lice":3098,"seiner":3099,"Bü":3100,"gemacht":3101,"problem":3102,"ahn":3103,"hä":3104,"understand":3105,"wanted":3106,"ib":3107,"hed":3108,"cre":3109,"Par":3110,"sah":3111,"arbe":3112,"zehn":3113,"everything":3114,"Aben":3115,"even":3116,"hof":3117,"Bl":3118,"without":3119,"Stadt":3120,"schön":3121,"Ha":3122,"neu":3123,"let":3124,"asked":3125,"dec":3126,"!“":3127,"Ho":3128,"dann":3129,"ang":3130,"Leute":3131,"ried":3132,"cken":3133,"soon":3134,"week":3135,"teach":3136,"iver":3137,"mber":3138,"fun":3139,"flo":3140,"ings":3141,"liche":3142,"things":3143,"aug":3144,"könnte":3145,"diesem":3146,"ßer":3147,"dog":3148,"dein":3149,"late":3150,"buy":3151,"took":3152,"big":3153,"immt":3154,"ahl":3155,"sing":3156,"acc":3157,"came":3158,"His":3159,"Vie":3160,"ball":3161,"heiß":3162,"gangen":3163,"happy":3164,"Uhr":3165,"sk":3166,"hört":3167,"att":3168,"ahre":3169,"damit":3170,"kel":3171,"iten":3172,"leid":3173,"Ro":3174,"lä":3175,"land":3176,"denn":3177,"keep":3178,"aut":3179,"wear":3180,"Lo":3181,"sle":3182,"recht":3183,"act":3184,"worden":3185,"Schule":3186,"Vater":3187,"wed":3188,"language":3189,"Nacht":3190,"Über":3191,"äft":3192,"wegen":3193,"next":3194,"found":3195,"Zimmer":3196,"eas":3197,"watch":3198,"change":3199,"schnell":3200,"ible":3201,"versuch":3202,"Mo":3203,"bad":3204,"cho":3205,"led":3206,"Son":3207,"tag":3208,"nehmen":3209,"air":3210,"trä":3211,"imes":3212,"May":3213,"ious":3214,"less":3215,"weiter":3216,"lleicht":3217,"bit":3218,"dan":3219,"ced":3220,"ett":3221,"own":3222,"voll":3223,"paar":3224,"ved":3225,"Mal":3226,"sur":3227,"great":3228,"saw":3229,"studen":3230,"mor":3231,"win":3232,"Ent":3233,"gehe":3234,"Wass":3235,"mist":3236,"wom":3237,"gern":3238,"bur":3239,"ms":3240,"zo":3241,"Im":3242,"beau":3243,"interest":3244,"Or":3245,"sicht":3246,"orrow":3247,"nothing":3248,"Straß":3249,"Mit":3250,"same":3251,"please":3252,"already":3253,"allen":3254,"pic":3255,"unsere":3256,"gefä":3257,"bir":3258,"morgen":3259,"zä":3260,"anderen":3261,"schu":3262,"stellen":3263,"El":3264,"Ihre":3265,"bab":3266,"stre":3267,"often":3268,"kannst":3269,"möglich":3270,"being":3271,"Englisch":3272,"jo":3273,"legen":3274,"meet":3275,"lichen":3276,"Ste":3277,"wrong":3278,"Kom":3279,"mat":3280,"tig":3281,"Kann":3282,"uten":3283,"beim":3284,"lar":3285,"ustr":3286,"helfen":3287,"schle":3288,"hö":3289,"chter":3290,"Go":3291,"each":3292,"unge":3293,"imme":3294,"around":3295,"tomorrow":3296,"Fahr":3297,"hören":3298,"Jahre":3299,"meiner":3300,"open":3301,"likes":3302,"cr":3303,"vom":3304,"hler":3305,"änd":3306,"beauti":3307,"col":3308,"aking":3309,"iting":3310,"Stu":3311,"loo":3312,"Als":3313,"Amer":3314,"head":3315,"youn":3316,"diesen":3317,"wus":3318,"kaufen":3319,"bleiben":3320,"20":3321,"einander":3322,"puter":3323,"Ko":3324,"gave":3325,"hlt":3326,"water":3327,"aben":3328,"few":3329,"issen":3330,"sagt":3331,"study":3332,"Zu":3333,"hour":3334,"irgend":3335,"getan":3336,"phone":3337,"Wasser":3338,"Will":3339,"door":3340,"jemand":3341,"Sprache":3342,"sor":3343,"finden":3344,"meinem":3345,"arbeit":3346,"Wel":3347,"Augen":3348,"real":3349,"seit":3350,"reiben":3351,"Ab":3352,"Um":3353,"Schl":3354,"hnt":3355,"person":3356,"which":3357,"king":3358,"ot":3359,"ually":3360,"denke":3361,"fire":3362,"beautiful":3363,"itet":3364,"Problem":3365,"cc":3366,"rest":3367,"leave":3368,"seen":3369,"schwer":3370,"sammen":3371,"Je":3372,"rain":3373,"ince":3374,"leg":3375,"zusammen":3376,"friends":3377,"bet":3378,"class":3379,"member":3380,"jeden":3381,"ieden":3382,"ord":3383,"sollte":3384,"Land":3385,"Wort":3386,"comp":3387,"tro":3388,"grö":3389,"musst":3390,"Kat":3391,"kur":3392,"run":3393,"arr":3394,"ünf":3395,"done":3396,"weise":3397,"Da":3398,"Mr":3399,"hung":3400,"walk":3401,"amen":3402,"poss":3403,"On":3404,"called":3405,"opf":3406,"looking":3407,"kn":3408,"hope":3409,"cannot":3410,"nat":3411,"stor":3412,"llar":3413,"wurden":3414,"Austr":3415,"kind":3416,"ats":3417,"auen":3418,"til":3419,"näch":3420,"aur":3421,"mind":3422,"pres":3423,"full":3424,"iv":3425,"senten":3426,"himself":3427,"Fu":3428,"gere":3429,"Hil":3430,"ces":3431,"train":3432,"Herr":3433,"zer":3434,"19":3435,"Tür":3436,"aren":3437,"gebr":3438,"Poli":3439,"mü":3440,"ßen":3441,"Hund":3442,"aid":3443,"dort":3444,"yet":3445,"then":3446,"For":3447,"Hand":3448,"öff":3449,"ged":3450,"lost":3451,"getting":3452,"couldn":3453,"bekommen":3454,"Dr":3455,"wasn":3456,"why":3457,"Austral":3458,"rel":3459,"sw":3460,"gehört":3461,"Kind":3462,"ose":3463,"immen":3464,"ücklich":3465,"sieht":3466,"wier":3467,"wants":3468,"sterday":3469,"police":3470,"Abend":3471,"ja":3472,"genau":3473,"sollten":3474,"interess":3475,"Ma":3476,"nung":3477,"wicht":3478,"ckt":3479,"illion":3480,"looked":3481,"Bes":3482,"lei":3483,"offee":3484,"rad":3485,"tragen":3486,"side":3487,"once":3488,"wort":3489,"learn":3490,"Mö":3491,"aden":3492,"schla":3493,"died":3494,"spielen":3495,"andere":3496,"sleep":3497,"ud":3498,"arm":3499,"Kon":3500,"Mus":3501,"Pl":3502,"äl":3503,"pped":3504,"mis":3505,"erg":3506,"leicht":3507,"allein":3508,"city":3509,"famil":3510,"änder":3511,"wischen":3512,"ta":3513,"sondern":3514,"believe":3515,"ele":3516,"verl":3517,"lic":3518,"books":3519,"place":3520,"bringen":3521,"yes":3522,"..":3523,"Wor":3524,"hst":3525,"isen":3526,"dies":3527,"Angst":3528,"inner":3529,"tain":3530,"alten":3531,"liebt":3532,"nahm":3533,"zeug":3534,"ived":3535,"Bitte":3536,"fünf":3537,"oment":3538,"lef":3539,"30":3540,"ga":3541,"enough":3542,"gegangen":3543,"offen":3544,"Krank":3545,"diff":3546,"wün":3547,"icult":3548,"Ch":3549,"Some":3550,"ffen":3551,"kill":3552,"miss":3553,"thr":3554,"Fehler":3555,"difficult":3556,"ys":3557,"leben":3558,"knows":3559,"hält":3560,"gute":3561,"ütz":3562,"betr":3563,"form":3564,"Joh":3565,"teacher":3566,"versch":3567,"ummer":3568,"halb":3569,"Chin":3570,"ason":3571,"until":3572,"young":3573,"answer":3574,"Gl":3575,"Min":3576,"sha":3577,"Johann":3578,"At":3579,"Would":3580,"bald":3581,"Schwe":3582,"As":3583,"hor":3584,"pain":3585,"fallen":3586,"family":3587,"kr":3588,"drink":3589,"possible":3590,"ctor":3591,"coffee":3592,"na":3593,"innen":3594,"iere":3595,"these":3596,"tut":3597,"ital":3598,"ign":3599,"while":3600,"bte":3601,"rot":3602,"movie":3603,"willst":3604,"ihren":3605,"Deut":3606,"tete":3607,"ents":3608,"iffer":3609,"rief":3610,"Fuß":3611,"halt":3612,"stell":3613,"Johannes":3614,"darüber":3615,"Kaf":3616,"Nie":3617,"letter":3618,"log":3619,"ilm":3620,"ihrer":3621,"food":3622,"wach":3623,"eren":3624,"igent":3625,"Groß":3626,"true":3627,"ucht":3628,"someone":3629,"through":3630,"light":3631,"wish":3632,"dazu":3633,"heard":3634,"Frage":3635,"braucht":3636,"Per":3637,"import":3638,"spricht":3639,"country":3640,"sy":3641,"itten":3642,"ds":3643,"heim":3644,"denken":3645,"Woche":3646,"afr":3647,"ction":3648,"sal":3649,"anden":3650,"says":3651,"ief":3652,"Your":3653,"ganze":3654,"afraid":3655,"matter":3656,"tal":3657,"tru":3658,"days":3659,"kauft":3660,"Jahren":3661,"Kar":3662,"gebracht":3663,"ace":3664,"listen":3665,"sollen":3666,"aufen":3667,"brauchen":3668,"brother":3669,"eyes":3670,"fing":3671,"send":3672,"Chr":3673,"av":3674,"bs":3675,"Lehrer":3676,"schuld":3677,"cent":3678,"order":3679,"ages":3680,"pay":3681,"thir":3682,"else":3683,"Feuer":3684,"Straße":3685,"Hilfe":3686,"dien":3687,"differ":3688,"ran":3689,"dest":3690,"also":3691,"licher":3692,"welche":3693,"Plan":3694,"Wann":3695,"ras":3696,"gekommen":3697,"lack":3698,"wouldn":3699,"Kl":3700,"might":3701,"expe":3702,"plain":3703,"woman":3704,"bought":3705,"stop":3706,"hear":3707,"heraus":3708,"Flug":3709,"blo":3710,"eigen":3711,"üm":3712,"une":3713,"bel":3714,"olit":3715,"looks":3716,"hatten":3717,"turn":3718,"ichte":3719,"atten":3720,"reg":3721,"wirst":3722,"Bücher":3723,"az":3724,"han":3725,"ato":3726,"ily":3727,"fertig":3728,"reason":3729,"ganzen":3730,"Zug":3731,"dow":3732,"exam":3733,"talking":3734,"yesterday":3735,"decide":3736,"Famil":3737,"Ende":3738,"wonder":3739,"Familie":3740,"Bist":3741,"hle":3742,"become":3743,"alte":3744,"zei":3745,"anyone":3746,"supp":3747,"Am":3748,"ton":3749,"remember":3750,"press":3751,"gram":3752,"gefunden":3753,"knew":3754,"os":3755,"show":3756,"ersten":3757,"vergessen":3758,"letzten":3759,"students":3760,"hur":3761,"ständ":3762,"nee":3763,"yourself":3764,"ami":3765,"amer":3766,"umen":3767,"Kaffee":3768,"deinen":3769,"Regen":3770,"important":3771,"sun":3772,"hair":3773,"alone":3774,"stellt":3775,"morning":3776,"kte":3777,"gegeben":3778,"gewö":3779,"Thank":3780,"Ke":3781,"Tas":3782,"table":3783,"schaf":3784,"coming":3785,"Christ":3786,"lon":3787,"tried":3788,"dafür":3789,"started":3790,"words":3791,"Ex":3792,"Wissen":3793,"fle":3794,"eng":3795,"alth":3796,"wollen":3797,"glücklich":3798,"scheint":3799,"sprach":3800,"Grund":3801,"eg":3802,"far":3803,"hter":3804,"ommen":3805,"findet":3806,"neuen":3807,"quite":3808,"break":3809,"uro":3810,"Schü":3811,"Kopf":3812,"hrend":3813,"road":3814,"ago":3815,"married":3816,"ppe":3817,"cook":3818,"gestern":3819,"easy":3820,"Dan":3821,"Tage":3822,"zig":3823,"fal":3824,"station":3825,"warten":3826,"favor":3827,"Dar":3828,"Lass":3829,"ith":3830,"hours":3831,"kennen":3832,"!\"":3833,"verste":3834,"utes":3835,"hnlich":3836,"brauch":3837,"month":3838,"party":3839,"Musik":3840,"dete":3841,"Spiel":3842,"Bus":3843,"zwischen":3844,"weit":3845,"music":3846,"cert":3847,"mlich":3848,"za":3849,"town":3850,"tired":3851,"änger":3852,"early":3853,"cold":3854,"Som":3855,"cat":3856,"cted":3857,"another":3858,"habt":3859,"warum":3860,"face":3861,"anymore":3862,"Niemand":3863,"nten":3864,"gele":3865,"Japanese":3866,"wusste":3867,"Wahr":3868,"ub":3869,"ont":3870,"tem":3871,"lieben":3872,"Ged":3873,"Wh":3874,"deiner":3875,"ence":3876,"anim":3877,"ket":3878,"lick":3879,"uchen":3880,"aughter":3881,"start":3882,"ates":3883,"doctor":3884,"sage":3885,"große":3886,"small":3887,"aw":3888,"mean":3889,"tic":3890,"born":3891,"Bru":3892,"Morgen":3893,"makes":3894,"uation":3895,"top":3896,"heir":3897,"Inter":3898,"haus":3899,"ker":3900,"ised":3901,"Mensch":3902,"happened":3903,"cap":3904,"ween":3905,"manden":3906,"Haben":3907,"reden":3908,"spät":3909,"anken":3910,"Bruder":3911,"ba":3912,"daughter":3913,"hielt":3914,"lin":3915,"rich":3916,"zeich":3917,"busy":3918,"Park":3919,"lefon":3920,"dachte":3921,"int":3922,"ished":3923,"liebe":3924,"liegt":3925,"idea":3926,"street":3927,"Fo":3928,"Tod":3929,"fern":3930,"nor":3931,"lea":3932,"fest":3933,"jeder":3934,"halte":3935,"Seine":3936,"fish":3937,"grand":3938,"setzen":3939,"Bett":3940,"cour":3941,"les":3942,"ush":3943,"Stunden":3944,"darauf":3945,"großen":3946,"sc":3947,"gegessen":3948,"fell":3949,"German":3950,"Den":3951,"high":3952,"sof":3953,"scht":3954,"ship":3955,"ating":3956,"neue":3957,"trans":3958,"überhau":3959,"ei":3960,"genug":3961,"prett":3962,"turned":3963,"atur":3964,"toge":3965,"lieber":3966,"komme":3967,"playing":3968,"arbeiten":3969,"Sit":3970,"since":3971,"aper":3972,"Glück":3973,"überhaupt":3974,"together":3975,"Ur":3976,"times":3977,"isst":3978,"ately":3979,"örter":3980,"against":3981,"ätze":3982,"accident":3983,"five":3984,"mals":3985,"erste":3986,"ition":3987,"sense":3988,"Does":3989,"scheinlich":3990,"Nicht":3991,"iness":3992,"getr":3993,"geworden":3994,"dri":3995,"aurant":3996,"gone":3997,"lö":3998,"hrlich":3999,"etz":4000,"comple":4001,"Vielleicht":4002,"truth":4003,"pretty":4004,"Hat":4005,"Many":4006,"vö":4007,"noti":4008,"computer":4009,"hörte":4010,"ln":4011,"aken":4012,"minutes":4013,"nice":4014,"hinter":4015,"ikan":4016,"Mir":4017,"zw":4018,"thes":4019,"solltest":4020,"pleas":4021,"adv":4022,"geboren":4023,"letzte":4024,"Alle":4025,"Nein":4026,"One":4027,"früh":4028,"Minuten":4029,"ather":4030,"ican":4031,"mut":4032,"loss":4033,"forget":4034,"musste":4035,"seems":4036,"Sh":4037,"Schw":4038,"lossen":4039,"company":4040,"Com":4041,"Pre":4042,"schreiben":4043,"auszu":4044,"ihrem":4045,"machte":4046,"druck":4047,"stag":4048,"stern":4049,"ison":4050,"benut":4051,"hot":4052,"Eine":4053,"sorry":4054,"Gar":4055,"cor":4056,"ize":4057,"üf":4058,"loves":4059,"everyone":4060,"hum":4061,"stück":4062,"spielt":4063,"uper":4064,"wert":4065,"parents":4066,"Tochter":4067,"Polizei":4068,"Ob":4069,"fas":4070,"pfel":4071,"sat":4072,"lagen":4073,"prom":4074,"ular":4075,"dent":4076,"dessen":4077,"prochen":4078,"niemand":4079,"Meinung":4080,"Fall":4081,"Namen":4082,"krank":4083,"erkl":4084,"schwier":4085,"joy":4086,"Junge":4087,"uf":4088,"gesprochen":4089,"trying":4090,"Bahn":4091,"Kan":4092,"Las":4093,"bat":4094,"ps":4095,"fällt":4096,"pie":4097,"einige":4098,"lives":4099,"window":4100,"sentence":4101,"Wahrheit":4102,"üß":4103,"erzä":4104,"ters":4105,"ierte":4106,"Could":4107,"band":4108,"cy":4109,"hü":4110,"küm":4111,"lesen":4112,"ühl":4113,"ience":4114,"whole":4115,"König":4116,"wichtig":4117,"Kr":4118,"jen":4119,"kid":4120,"xi":4121,"met":4122,"Essen":4123,"between":4124,"Brief":4125,"ouble":4126,"tele":4127,"myself":4128,"Schüler":4129,"Film":4130,"cut":4131,"whe":4132,"zte":4133,"llow":4134,"ingen":4135,"quick":4136,"gewesen":4137,"Eltern":4138,"hig":4139,"sst":4140,"near":4141,"äng":4142,"darf":4143,"complete":4144,"Our":4145,"cond":4146,"fährt":4147,"Geschichte":4148,"Euro":4149,"Gi":4150,"Sinn":4151,"mä":4152,"having":4153,"antwor":4154,"Ange":4155,"ihnen":4156,"reading":4157,"working":4158,"num":4159,"ches":4160,"llig":4161,"igung":4162,"beschäft":4163,"decided":4164,"üher":4165,"esse":4166,"Zwe":4167,"four":4168,"sister":4169,"health":4170,"iste":4171,"roh":4172,"low":4173,"Katze":4174,"Sein":4175,"ture":4176,"heart":4177,"neigh":4178,"both":4179,"ountain":4180,"Kannst":4181,"verloren":4182,"Kranken":4183,"ial":4184,"sim":4185,"finde":4186,"wearing":4187,"größ":4188,"agte":4189,"known":4190,"wahrscheinlich":4191,"Fen":4192,"Wörter":4193,"song":4194,"sick":4195,"yo":4196,"beide":4197,"nete":4198,"liegen":4199,"Liebe":4200,"folg":4201,"sofort":4202,"kümmer":4203,"Fenster":4204,"zwar":4205,"chten":4206,"igkeiten":4207,"Hotel":4208,"aught":4209,"longer":4210,"Schul":4211,"surpr":4212,"arrived":4213,"müde":4214,"gn":4215,"nt":4216,"unk":4217,"auber":4218,"almost":4219,"trag":4220,"trink":4221,"dress":4222,"mas":4223,"außer":4224,"schlag":4225,"Viele":4226,"favorite":4227,"gekauft":4228,"sent":4229,"ilt":4230,"Freunde":4231,"000":4232,"buch":4233,"cur":4234,"auer":4235,"spä":4236,"Weg":4237,"large":4238,"pon":4239,"ziemlich":4240,"arbeitet":4241,"bably":4242,"dro":4243,"mil":4244,"snow":4245,"stet":4246,"outh":4247,"ingt":4248,"vielleicht":4249,"ände":4250,"comes":4251,"treffen":4252,"heißt":4253,"18":4254,"Lu":4255,"Ph":4256,"Satz":4257,"ail":4258,"bi":4259,"mountain":4260,"Sta":4261,"schlecht":4262,"rück":4263,"allo":4264,"probably":4265,"passiert":4266,"Tok":4267,"bie":4268,"free":4269,"einz":4270,"short":4271,"gefallen":4272,"interesting":4273,"American":4274,"gs":4275,"ized":4276,"birth":4277,"Tato":4278,"kehr":4279,"ross":4280,"gefällt":4281,"game":4282,"kaum":4283,"gaben":4284,"danger":4285,"Für":4286,"moment":4287,"usually":4288,"wenig":4289,"killed":4290,"Hau":4291,"ieß":4292,"besteht":4293,"undert":4294,"Bahnhof":4295,"Tatoe":4296,"inion":4297,"standen":4298,"beste":4299,"set":4300,"deut":4301,"ders":4302,"fort":4303,"forgot":4304,"Dollar":4305,"suchen":4306,"ufen":4307,"erinn":4308,"ator":4309,"ischer":4310,"glass":4311,"aff":4312,"laug":4313,"fte":4314,"frei":4315,"ife":4316,"letzt":4317,"freund":4318,"zogen":4319,"number":4320,"Ju":4321,"those":4322,"tend":4323,"mittel":4324,"Fragen":4325,"opinion":4326,"ject":4327,"half":4328,"Tatoeba":4329,"TV":4330,"ists":4331,"cept":4332,"lieb":4333,"lasse":4334,"gelesen":4335,"daran":4336,"meeting":4337,"fully":4338,"Schwester":4339,"beschäftigt":4340,"Dinge":4341,"Ide":4342,"pop":4343,"angr":4344,"aller":4345,"rieben":4346,"Wä":4347,"enjoy":4348,"igte":4349,"poor":4350,"icken":4351,"wait":4352,"wall":4353,"etimes":4354,"beiden":4355,"während":4356,"brauche":4357,"ziehen":4358,"hoffe":4359,"trägt":4360,"Ben":4361,"Sami":4362,"jung":4363,"office":4364,"story":4365,"igentlich":4366,"Ta":4367,"pho":4368,"oud":4369,"haven":4370,"Ant":4371,"würden":4372,"build":4373,"lässt":4374,"mistake":4375,"ccess":4376,"lose":4377,"trouble":4378,"guter":4379,"themat":4380,"waiting":4381,"angry":4382,"Pap":4383,"case":4384,"inv":4385,"atet":4386,"bemer":4387,"igten":4388,"goes":4389,"Heute":4390,"Gesicht":4391,"picture":4392,"Winter":4393,"cess":4394,"rt":4395,"ons":4396,"Gebur":4397,"reibt":4398,"needs":4399,"white":4400,"Sohn":4401,"Freundin":4402,"dream":4403,"making":4404,"neh":4405,"akt":4406,"mögen":4407,"Prä":4408,"kennt":4409,"gedacht":4410,"Em":4411,"Sel":4412,"death":4413,"schte":4414,"agree":4415,"Telefon":4416,"Liebl":4417,"ale":4418,"ias":4419,"kä":4420,"smo":4421,"ered":4422,"Not":4423,"clothes":4424,"Qu":4425,"ili":4426,"tober":4427,"früher":4428,"law":4429,"ennen":4430,"glad":4431,"ändern":4432,"works":4433,"Tell":4434,"flower":4435,"certain":4436,"Sommer":4437,"dic":4438,"lebt":4439,"others":4440,"schlafen":4441,"eigentlich":4442,"mst":4443,"pun":4444,"secre":4445,"spend":4446,"front":4447,"colle":4448,"girls":4449,"clean":4450,"zog":4451,"baby":4452,"Danke":4453,"Fern":4454,"ars":4455,"meisten":4456,"wife":4457,"mandem":4458,"ics":4459,"success":4460,"hands":4461,"swe":4462,"wohn":4463,"wohnt":4464,"Bei":4465,"Seite":4466,"pub":4467,"reichen":4468,"Everyone":4469,"Mil":4470,"Vo":4471,"llo":4472,"bevor":4473,"living":4474,"umm":4475,"glauben":4476,"Fahrrad":4477,"gewöhnlich":4478,"brauchst":4479,"zy":4480,"dabei":4481,"Und":4482,"cover":4483,"bisschen":4484,"different":4485,"Get":4486,"cked":4487,"polit":4488,"enter":4489,"scheinen":4490,"schließ":4491,"tive":4492,"ical":4493,"fahr":4494,"questions":4495,"Foto":4496,"Geburt":4497,"err":4498,"besten":4499,"Arzt":4500,"Nachbar":4501,"clock":4502,"wal":4503,"ision":4504,"genommen":4505,"box":4506,"laden":4507,"legenheit":4508,"completely":4509,"10":4510,"But":4511,"Even":4512,"Richt":4513,"har":4514,"anger":4515,"tea":4516,"ausge":4517,"thinking":4518,"richtig":4519,"cer":4520,"fter":4521,"som":4522,"wind":4523,"auchen":4524,"dead":4525,"ücken":4526,"lived":4527,"sider":4528,"Wagen":4529,"äche":4530,"einzu":4531,"trave":4532,"olz":4533,"selves":4534,"ißig":4535,"Reg":4536,"store":4537,"schwimmen":4538,"Krie":4539,"dinner":4540,"scar":4541,"irt":4542,"haft":4543,"hätten":4544,"gabe":4545,"Gen":4546,"utet":4547,"expect":4548,"\".":4549,"schwe":4550,"achten":4551,"ums":4552,"ernt":4553,"gets":4554,"saying":4555,"fuhr":4556,"neighbor":4557,"13":4558,"fand":4559,"luck":4560,"ären":4561,"zug":4562,"aufzu":4563,"ika":4564,"iker":4565,"These":4566,"holen":4567,"legte":4568,"Australia":4569,"Wissenschaft":4570,"Oh":4571,"erweise":4572,"Schla":4573,"icy":4574,"fine":4575,"geschrieben":4576,"nächsten":4577,"Part":4578,"Sind":4579,"summer":4580,"vi":4581,"statt":4582,"ati":4583,"bekann":4584,"schr":4585,"trust":4586,"Stre":4587,"seem":4588,"gelernt":4589,"treten":4590,"Australien":4591,"schien":4592,"ump":4593,"Erde":4594,"herum":4595,"rather":4596,"Stelle":4597,"Fü":4598,"Fir":4599,"Kleid":4600,"Mü":4601,"ane":4602,"Marias":4603,"hop":4604,"warm":4605,"floor":4606,"Pe":4607,"hundert":4608,"ünd":4609,",\"":4610,"Män":4611,"verlassen":4612,"bot":4613,"finished":4614,"Teil":4615,"Spaß":4616,"Menge":4617,"speaks":4618,"write":4619,"six":4620,"Studen":4621,"ca":4622,"ev":4623,"espe":4624,"fair":4625,"consider":4626,"ruck":4627,"brechen":4628,"Sonnen":4629,"Selbst":4630,"Glau":4631,"schn":4632,"utz":4633,"trip":4634,"hosp":4635,"beginn":4636,"Maybe":4637,"wachsen":4638,"secret":4639,"Million":4640,"Tisch":4641,"bede":4642,"etwa":4643,"hotel":4644,"Verein":4645,"fur":4646,"takes":4647,"schied":4648,"mail":4649,"appear":4650,"Berg":4651,"Darf":4652,"squ":4653,"tree":4654,"ouch":4655,"tot":4656,"schö":4657,"mel":4658,"geln":4659,"kleine":4660,"stood":4661,"bereits":4662,"Ord":4663,"Rad":4664,"Yes":4665,"bread":4666,"ka":4667,"sug":4668,"chmal":4669,"tiv":4670,"closed":4671,"garden":4672,"Kur":4673,"miteinander":4674,"shouldn":4675,"plane":4676,"bereit":4677,"völlig":4678,"whether":4679,"Hung":4680,"Laden":4681,"tin":4682,"ene":4683,"though":4684,"verstehen":4685,"etter":4686,"Dies":4687,"fragte":4688,"Früh":4689,"close":4690,"weniger":4691,"passt":4692,"walked":4693,"Jack":4694,"caught":4695,"vern":4696,"rote":4697,"scheiden":4698,"photo":4699,"clear":4700,"ef":4701,"eure":4702,"sound":4703,"unft":4704,"along":4705,"mittag":4706,"worry":4707,"post":4708,"Wochen":4709,"broke":4710,"visit":4711,"passen":4712,"kurz":4713,"thirty":4714,"Computer":4715,"laufen":4716,"stup":4717,"sever":4718,"ama":4719,"wider":4720,"undheit":4721,"Erfolg":4722,"Univer":4723,"Tee":4724,"river":4725,"Frauen":4726,"amera":4727,"animals":4728,"driving":4729,"Come":4730,"ness":4731,"wit":4732,"chs":4733,"schre":4734,"führen":4735,"falsch":4736,"Preis":4737,"Brot":4738,"Rom":4739,"grow":4740,"dollar":4741,"tiert":4742,"And":4743,"stud":4744,"student":4745,"Garten":4746,"üfung":4747,"Lieblings":4748,"Ear":4749,"ire":4750,"ny":4751,"paper":4752,"ande":4753,"seines":4754,"jede":4755,"prefer":4756,"Lebens":4757,"evening":4758,"interested":4759,"Hör":4760,"Tan":4761,"hind":4762,"wunder":4763,"char":4764,"ination":4765,"ond":4766,"unken":4767,"begr":4768,"trauen":4769,"cost":4770,"starb":4771,"stopped":4772,"unserer":4773,"größer":4774,"Person":4775,"Gibt":4776,"hit":4777,"osed":4778,"essed":4779,"aul":4780,"lief":4781,"ängt":4782,"stens":4783,"dark":4784,"watching":4785,"Med":4786,"black":4787,"fangen":4788,"ium":4789,"lust":4790,"winter":4791,"inde":4792,"began":4793,"weather":4794,"spo":4795,"frieden":4796,"ured":4797,"sprache":4798,"color":4799,"verstehe":4800,"hospital":4801,"Has":4802,"Kü":4803,"Now":4804,"wann":4805,"gestellt":4806,"key":4807,"jemanden":4808,"cient":4809,"Büro":4810,"Tiere":4811,"bö":4812,"ktion":4813,"ling":4814,"zimmer":4815,"gemein":4816,"fragen":4817,"Geb":4818,"ational":4819,"thinks":4820,"blind":4821,"cial":4822,"arbeite":4823,"schwierig":4824,"ilo":4825,"thank":4826,"teen":4827,"ution":4828,"lying":4829,"vorbei":4830,"exper":4831,"gang":4832,"niemals":4833,"given":4834,"Nobody":4835,"deln":4836,"...":4837,"quickly":4838,"Antwort":4839,"Präs":4840,"15":4841,"Spe":4842,"Take":4843,"bicy":4844,"past":4845,"tat":4846,"isk":4847,"außen":4848,"least":4849,"second":4850,"ofess":4851,"outside":4852,"Art":4853,"spieler":4854,"mistakes":4855,"wünschte":4856,"Hoff":4857,"“,":4858,"ität":4859,"Stück":4860,"point":4861,"Gesundheit":4862,"news":4863,"bringt":4864,"teilen":4865,"Which":4866,"Sorgen":4867,"bare":4868,"Uns":4869,"count":4870,"unseren":4871,"Geschäft":4872,"swim":4873,"Co":4874,"Pfer":4875,"Tur":4876,"schät":4877,"fool":4878,"foot":4879,"seemed":4880,"eating":4881,"Nachricht":4882,"stupid":4883,"bicycle":4884,"11":4885,"Baum":4886,"kiss":4887,"ntag":4888,"por":4889,"worth":4890,"idet":4891,"sonst":4892,"falls":4893,"iano":4894,"affic":4895,"Schlaf":4896,"Studenten":4897,"Che":4898,"cra":4899,"rect":4900,"uring":4901,"amp":4902,"ickt":4903,"formation":4904,"Party":4905,"zahl":4906,"ende":4907,"univer":4908,"sehe":4909,"perfe":4910,"darin":4911,"Herz":4912,"present":4913,"cup":4914,"fut":4915,"million":4916,"ötz":4917,"gebe":4918,"hate":4919,"forder":4920,"annt":4921,"main":4922,"fühle":4923,"getroffen":4924,"Haupt":4925,"flowers":4926,"Geburtstag":4927,"Ordnung":4928,"Bild":4929,"Just":4930,"cts":4931,"hus":4932,"lf":4933,"sil":4934,"ähe":4935,"inj":4936,"ries":4937,"serious":4938,"Alter":4939,"written":4940,"became":4941,"Fluss":4942,"Staaten":4943,"Durch":4944,"Sund":4945,"gas":4946,"thre":4947,"schü":4948,"noon":4949,"idung":4950,"ppen":4951,"learning":4952,"cket":4953,"Monat":4954,"decision":4955,"needed":4956,"Sunday":4957,"Ja":4958,"Last":4959,"Mach":4960,"Wahl":4961,"lag":4962,"walt":4963,"oup":4964,"wech":4965,"Weiß":4966,"Weihn":4967,"brought":4968,"ifen":4969,"Verkehr":4970,"planet":4971,"Könnte":4972,"imming":4973,"Tokyo":4974,"Firma":4975,"Earth":4976,"Fle":4977,"Give":4978,"Ihren":4979,"itze":4980,"verbr":4981,"kept":4982,"ward":4983,"hasn":4984,"view":4985,"iled":4986,"park":4987,"schöne":4988,"dollars":4989,"App":4990,"Licht":4991,"eben":4992,"hil":4993,"mes":4994,"tall":4995,"taken":4996,"zü":4997,"rece":4998,"ichten":4999,"hoch":5000,"bott":5001,"ants":5002,"United":5003,"würdest":5004,"languages":5005,"begann":5006,"studying":5007,"Platz":5008,"supposed":5009,"hüb":5010,"birthday":5011,"Vereinigten":5012,",▁":5013,"Aber":5014,"US":5015,"taking":5016,"zusehen":5017,"zufrieden":5018,"vel":5019,"fortun":5020,"wartet":5021,"selten":5022,"sub":5023,"appo":5024,"glaubt":5025,"kamen":5026,"business":5027,"haup":5028,"Jeder":5029,"blood":5030,"breakfast":5031,"zahlen":5032,"human":5033,"Idee":5034,"cri":5035,"uen":5036,"behind":5037,"ends":5038,"States":5039,"drive":5040,"spee":5041,"schland":5042,"shop":5043,"situation":5044,"hurt":5045,"später":5046,"Jetzt":5047,"Kla":5048,"bag":5049,"hing":5050,"later":5051,"ual":5052,"itar":5053,"endlich":5054,"sterben":5055,"afternoon":5056,"hungry":5057,"Deutschland":5058,"ständig":5059,"Christmas":5060,"Krankenhaus":5061,"covered":5062,"future":5063,"-▁":5064,"Mitte":5065,"fig":5066,"küs":5067,"kunft":5068,"chan":5069,"chance":5070,"verb":5071,"ames":5072,"absol":5073,"Schmer":5074,"merk":5075,"chtest":5076,"strange":5077,"versuchte":5078,"Mathemat":5079,"talked":5080,"Russ":5081,"Sk":5082,"ider":5083,"sme":5084,"val":5085,"schrie":5086,"vers":5087,"verli":5088,"imal":5089,"ently":5090,"chenk":5091,"sagten":5092,"meines":5093,"geschlossen":5094,"feeling":5095,"tonight":5096,"dangerous":5097,"After":5098,"Hab":5099,"Moment":5100,"pack":5101,"team":5102,"aute":5103,"ica":5104,"hlte":5105,"ünst":5106,"Germany":5107,"actually":5108,"Entsche":5109,"restaurant":5110,"husband":5111,"Apfel":5112,"Sache":5113,"ichen":5114,"gezogen":5115,"ural":5116,"using":5117,"kenne":5118,"Komm":5119,"eigenen":5120,"diction":5121,"speech":5122,"kar":5123,"lung":5124,"uge":5125,"stadt":5126,"worked":5127,"Anne":5128,"explain":5129,"earth":5130,"gift":5131,"pens":5132,"Blumen":5133,"Sonne":5134,"piece":5135,"Kir":5136,"Klasse":5137,"krie":5138,"läu":5139,"schwar":5140,"rochen":5141,"zeigen":5142,"seln":5143,"ations":5144,"führ":5145,"spreche":5146,"Paris":5147,"changed":5148,"gefähr":5149,"Männer":5150,"Alice":5151,"ähne":5152,"leiden":5153,"tier":5154,"exact":5155,"rufen":5156,"blue":5157,"sitzen":5158,"Luft":5159,"Blick":5160,"Hier":5161,"kre":5162,"lled":5163,"aby":5164,"cks":5165,"spent":5166,"fear":5167,"ille":5168,"power":5169,"exist":5170,"follow":5171,"nächste":5172,"swimming":5173,"Sto":5174,"cake":5175,"lass":5176,"Är":5177,"lop":5178,"Schnee":5179,"änden":5180,"Arm":5181,"anders":5182,"apple":5183,"lernt":5184,"shoes":5185,"Unterricht":5186,"voller":5187,"Gott":5188,"immel":5189,"Thanks":5190,"suggest":5191,"Dor":5192,"Himmel":5193,"mann":5194,"piano":5195,"icher":5196,"ware":5197,"driver":5198,"gefangen":5199,"See":5200,"Canad":5201,"Straßen":5202,"either":5203,"Lasst":5204,"Hal":5205,"With":5206,"Wetter":5207,"dig":5208,"deinem":5209,"mur":5210,"tie":5211,"unch":5212,"versteht":5213,"verrück":5214,"imag":5215,"edes":5216,"felt":5217,"Heim":5218,"lied":5219,"chehen":5220,"exc":5221,"Energ":5222,"Reise":5223,"speaking":5224,"Haar":5225,"Milch":5226,"Zum":5227,"hist":5228,"öst":5229,"ennt":5230,"Rest":5231,"finish":5232,"suit":5233,"Spre":5234,"rift":5235,"clim":5236,"Alles":5237,"versuchen":5238,"Möchtest":5239,"advice":5240,"antworten":5241,"God":5242,"Kä":5243,"Name":5244,"Sha":5245,"oul":5246,"sechs":5247,"delt":5248,"verdien":5249,"allzu":5250,"traffic":5251,"across":5252,"Unfall":5253,"geschaf":5254,"broken":5255,"New":5256,"Look":5257,"versucht":5258,"Entschuld":5259,"women":5260,"OK":5261,"super":5262,"entr":5263,"tent":5264,"moon":5265,"weißt":5266,"flü":5267,"Zukunft":5268,"Keep":5269,"größte":5270,"cast":5271,"othe":5272,"ash":5273,"ierung":5274,"hnung":5275,"Gestern":5276,"homework":5277,"Jahres":5278,"Tages":5279,"bird":5280,"leaving":5281,"kids":5282,"Bier":5283,"Kre":5284,"Sti":5285,"ude":5286,"befindet":5287,"ory":5288,"ausend":5289,"ima":5290,"brary":5291,"aseball":5292,"üssel":5293,"zeitig":5294,"Worte":5295,"Wörterbuch":5296,"Stop":5297,"dist":5298,"eye":5299,"mid":5300,"rid":5301,"zent":5302,"stimmt":5303,"gehalten":5304,"heav":5305,"library":5306,"Schau":5307,"hervor":5308,"move":5309,"Frank":5310,"ounded":5311,"bestimmt":5312,"kosten":5313,"gegenüber":5314,"Berlin":5315,"sometimes":5316,"Hoffnung":5317,"Entscheidung":5318,"Bob":5319,"Pass":5320,"dou":5321,"länger":5322,"entsch":5323,"Schwier":5324,"liked":5325,"laub":5326,"Prin":5327,"Hoch":5328,"Zwei":5329,"Des":5330,"Hö":5331,"Hü":5332,"Ok":5333,"Ster":5334,"kle":5335,"inal":5336,"intell":5337,"itter":5338,"offer":5339,"Erd":5340,"überras":5341,"complain":5342,"hinzu":5343,"meinte":5344,"eaten":5345,"result":5346,"stayed":5347,"boys":5348,"transl":5349,"Situation":5350,"Krieg":5351,"Ken":5352,"cause":5353,"dür":5354,"arti":5355,"verwen":5356,"ument":5357,"zel":5358,"Geh":5359,"änen":5360,"wär":5361,"geschlagen":5362,"writing":5363,"setzt":5364,"Blut":5365,"schaffen":5366,"doubt":5367,"Sor":5368,"eher":5369,"iet":5370,"itz":5371,"organ":5372,"denen":5373,"verschw":5374,"sport":5375,"stem":5376,"boten":5377,"ört":5378,"strong":5379,"nerv":5380,"sentences":5381,"missed":5382,"Chinese":5383,"unehmen":5384,"erklären":5385,"Eier":5386,"Mitt":5387,"bten":5388,"bla":5389,"card":5390,"iche":5391,"cker":5392,"steigen":5393,"oko":5394,"profess":5395,"anybody":5396,"besuchen":5397,"kleinen":5398,"girlfriend":5399,"hardly":5400,"Willst":5401,"Krankheit":5402,"Flugzeug":5403,"capital":5404,"lösen":5405,"Bis":5406,"Li":5407,"Lin":5408,"aun":5409,"bank":5410,"cou":5411,"nä":5412,"ones":5413,"reicht":5414,"machst":5415,"jedem":5416,"guy":5417,"gefü":5418,"gesto":5419,"emp":5420,"heiraten":5421,"Internet":5422,"einzige":5423,"public":5424,"Schwierigkeiten":5425,"Messer":5426,"bill":5427,"froh":5428,"lad":5429,"md":5430,"yed":5431,"bege":5432,"verstanden":5433,"Hel":5434,"Schön":5435,"mache":5436,"schluss":5437,"langweil":5438,"crazy":5439,"exactly":5440,"Jane":5441,"Tu":5442,"adu":5443,"hund":5444,"wand":5445,"ative":5446,"weder":5447,"ament":5448,"aged":5449,"Rech":5450,"guten":5451,"äume":5452,"empt":5453,"Everything":5454,"älter":5455,"Klavier":5456,"dictionary":5457,"Farbe":5458,"Maß":5459,"Sal":5460,"Tre":5461,"Wald":5462,"fam":5463,"vill":5464,"“.":5465,"rown":5466,"umor":5467,"boss":5468,"langen":5469,"Ital":5470,"Recht":5471,"Möglich":5472,"expected":5473,"eggs":5474,"bedeutet":5475,"Ehe":5476,"Hät":5477,"fit":5478,"lim":5479,"touch":5480,"vol":5481,"vide":5482,"engl":5483,"beer":5484,"necess":5485,"ckte":5486,"trug":5487,"entde":5488,"sieben":5489,"lies":5490,"fürchte":5491,"grün":5492,"finally":5493,"loved":5494,"gebnis":5495,"Sonntag":5496,"Poliz":5497,"gramm":5498,"temper":5499,"several":5500,"Polit":5501,"catch":5502,"fight":5503,"thin":5504,"sell":5505,"abzu":5506,"solle":5507,"liches":5508,"cell":5509,"onest":5510,"liest":5511,"brachte":5512,"Kino":5513,"mark":5514,"freue":5515,"Katzen":5516,"movies":5517,"Gedanken":5518,"People":5519,"smell":5520,"Lied":5521,"Rat":5522,"Sü":5523,"zah":5524,"arch":5525,"erei":5526,"tire":5527,"ilen":5528,"kommst":5529,"disc":5530,"medic":5531,"neues":5532,"Most":5533,"irgendwo":5534,"stellung":5535,"noticed":5536,"Fernse":5537,"verrückt":5538,"Mittag":5539,"famous":5540,"Bu":5541,"messen":5542,"non":5543,"uppe":5544,"öt":5545,"ücke":5546,"inc":5547,"repar":5548,"unkel":5549,"gehst":5550,"seven":5551,"wet":5552,"aufgaben":5553,"spie":5554,"ustom":5555,"likely":5556,"check":5557,"reib":5558,"sucht":5559,"flu":5560,"knife":5561,"natür":5562,"correct":5563,"simple":5564,"Nachbarn":5565,"Habt":5566,"Ober":5567,"Sätze":5568,"fiel":5569,"ufel":5570,"wagen":5571,"leep":5572,"impossible":5573,"Schiff":5574,"guess":5575,"inside":5576,"Nachmittag":5577,"useum":5578,"careful":5579,"Abendessen":5580,"Hunger":5581,"Frühstück":5582,"ötzlich":5583,"injured":5584,"Raum":5585,"during":5586,"eten":5587,"ime":5588,"slow":5589,"wrote":5590,"omen":5591,"ury":5592,"entlich":5593,"Geheim":5594,"prison":5595,"Span":5596,"learned":5597,"egal":5598,"lucky":5599,"hart":5600,"nimmt":5601,"ügen":5602,"island":5603,"llten":5604,"herself":5605,"Armen":5606,"klar":5607,"Sei":5608,"rible":5609,"vision":5610,"problems":5611,"Welche":5612,"China":5613,"attention":5614,"heiratet":5615,"bekannt":5616,"Bau":5617,"Lage":5618,"Sicher":5619,"Zahn":5620,"cal":5621,"crow":5622,"lunch":5623,"olog":5624,"beantworten":5625,"hell":5626,"inger":5627,"schmer":5628,"amm":5629,"dahin":5630,"ängst":5631,"besucht":5632,"England":5633,"waited":5634,"plays":5635,"paid":5636,"visited":5637,"Everybody":5638,"kümmern":5639,"Gebäu":5640,"Präsident":5641,"pensive":5642,"Restaurant":5643,"Afr":5644,"Baby":5645,"Gib":5646,"Wür":5647,"sea":5648,"mosp":5649,"aka":5650,"Anf":5651,"desk":5652,"expensive":5653,"prote":5654,"Sprachen":5655,"Können":5656,"funny":5657,"Elke":5658,"Only":5659,"president":5660,"Deutsch":5661,"medicine":5662,"Fin":5663,"Lös":5664,"ell":5665,"ücht":5666,"means":5667,"gener":5668,"anning":5669,"stelle":5670,"Sche":5671,"weren":5672,"oper":5673,"Insel":5674,"niemanden":5675,"stron":5676,"marry":5677,"passed":5678,"Angelegenheit":5679,"erinnern":5680,"Dein":5681,"Fisch":5682,"ding":5683,"sinn":5684,"wise":5685,"ature":5686,"liothe":5687,"planning":5688,"appro":5689,"stark":5690,"hättest":5691,"gleichen":5692,"ibliothe":5693,"easily":5694,"running":5695,"allowed":5696,"spoke":5697,"hundred":5698,"Lösung":5699,"Frei":5700,"Kek":5701,"Nor":5702,"Rauchen":5703,"Sachen":5704,"blick":5705,"dle":5706,"japan":5707,"kit":5708,"link":5709,"sn":5710,"sum":5711,"yp":5712,"selt":5713,"save":5714,"accept":5715,"Geschenk":5716,"sud":5717,"market":5718,"punkt":5719,"Tenn":5720,"cry":5721,"hause":5722,"line":5723,"mad":5724,"phy":5725,"zung":5726,"attr":5727,"ernst":5728,"apart":5729,"drunk":5730,"Rede":5731,"common":5732,"gutes":5733,"flug":5734,"dreißig":5735,"cious":5736,"carefully":5737,"Herrn":5738,"interessan":5739,"Today":5740,"schnitt":5741,"Prinz":5742,"100":5743,"Bibliothe":5744,"Deine":5745,"vac":5746,"enth":5747,"irm":5748,"verg":5749,"hold":5750,"isches":5751,"überall":5752,"vorstellen":5753,"Teufel":5754,"spring":5755,"Tränen":5756,"funktion":5757,"building":5758,"college":5759,"bottle":5760,"sudden":5761,"Tennis":5762,"Di":5763,"Kap":5764,"Super":5765,"Von":5766,"sand":5767,"übr":5768,"stes":5769,"reach":5770,"reco":5771,"sold":5772,"hose":5773,"serv":5774,"besit":5775,"played":5776,"trees":5777,"respon":5778,"folgen":5779,"Meer":5780,"natural":5781,"Tasse":5782,"Taxi":5783,"couple":5784,"empty":5785,"Bank":5786,"Ker":5787,"Kuchen":5788,"Tier":5789,"honest":5790,"ired":5791,"mine":5792,"unmöglich":5793,"beein":5794,"beach":5795,"iges":5796,"space":5797,"fehlen":5798,"Schach":5799,"pping":5800,"Tem":5801,"foreign":5802,"Könnten":5803,"könntest":5804,"sky":5805,"smoking":5806,"zahlt":5807,"200":5808,"Pf":5809,"ehe":5810,"gelassen":5811,"ager":5812,"aufhören":5813,"berüh":5814,"olen":5815,"Stunde":5816,"anderes":5817,"niemandem":5818,"vielen":5819,"gewinnen":5820,"izza":5821,"gingen":5822,"Aufgabe":5823,"boyfriend":5824,"heiße":5825,"amerikan":5826,"Kanad":5827,"Vogel":5828,"Hauptstadt":5829,"Weißt":5830,"heavy":5831,"Port":5832,"Ven":5833,"kst":5834,"rä":5835,"rat":5836,"chung":5837,"atte":5838,"report":5839,"gefahren":5840,"leer":5841,"sex":5842,"novel":5843,"tennis":5844,"trie":5845,"liebte":5846,"Frühl":5847,"conf":5848,"coat":5849,"lasche":5850,"itting":5851,"Proble":5852,"Haare":5853,"Schlüssel":5854,"leider":5855,"leihen":5856,"Planeten":5857,"surprised":5858,"Gru":5859,"Hände":5860,"Kun":5861,"Wind":5862,"Wol":5863,"nütz":5864,"rig":5865,"tä":5866,"ull":5867,"sts":5868,"tears":5869,"lla":5870,"deal":5871,"hab":5872,"deren":5873,"welt":5874,"neun":5875,"umbre":5876,"warte":5877,"Versuch":5878,"respe":5879,"jenige":5880,"telephone":5881,"bemerkte":5882,"geschafft":5883,"Geheimnis":5884,"vacation":5885,"Jungen":5886,"Lust":5887,"Ru":5888,"flich":5889,"ffer":5890,"jud":5891,"len":5892,"mouth":5893,"erled":5894,"gent":5895,"fehlt":5896,"frage":5897,"herr":5898,"wären":5899,"solchen":5900,"unserem":5901,"storm":5902,"animal":5903,"nehme":5904,"scared":5905,"Eis":5906,"Ter":5907,"uit":5908,"erk":5909,"Schne":5910,"saß":5911,"draußen":5912,"program":5913,"carry":5914,"allem":5915,"themselves":5916,"Grün":5917,"läss":5918,"bitten":5919,"Karten":5920,"hurry":5921,"Wissenschaftler":5922,"iloso":5923,"Eind":5924,"Fort":5925,"Ye":5926,"cce":5927,"sign":5928,"chair":5929,"verletzt":5930,"trat":5931,"hood":5932,"mitzu":5933,"Schreibt":5934,"worried":5935,"posit":5936,"beson":5937,"fix":5938,"Absicht":5939,"difference":5940,"normal":5941,"trinkt":5942,"umbrella":5943,"Lon":5944,"Mut":5945,"Netz":5946,"eig":5947,"jungen":5948,"tschaft":5949,"uk":5950,"seid":5951,"weight":5952,"tended":5953,"iling":5954,"gesam":5955,"Gef":5956,"Leave":5957,"offic":5958,"everybody":5959,"succe":5960,"minister":5961,"Hausaufgaben":5962,"Monday":5963,"setzte":5964,"passieren":5965,"teilt":5966,"immedi":5967,"native":5968,"course":5969,"courage":5970,"milk":5971,"beginning":5972,"böse":5973,"discuss":5974,"Eindruck":5975,"Fein":5976,"Kno":5977,"fly":5978,"gue":5979,"kis":5980,"stär":5981,"schme":5982,"geschehen":5983,"zentr":5984,"qual":5985,"Schuld":5986,"Mehr":5987,"Welches":5988,"handelt":5989,"popular":5990,"Chef":5991,"Dorf":5992,"London":5993,"Bar":5994,"Mund":5995,"kap":5996,"onnen":5997,"impress":5998,"neben":5999,"traum":6000,"lage":6001,"prac":6002,"darum":6003,"klein":6004,"Boden":6005,"telling":6006,"stars":6007,"ärung":6008,"solution":6009,"höher":6010,"Amerikan":6011,"Kore":6012,"grandfather":6013,"trinken":6014,"Oktober":6015,"Bibliothek":6016,"Venus":6017,"Gefäng":6018,"Kor":6019,"Kam":6020,"Lesen":6021,"Sag":6022,"Such":6023,"lend":6024,"Thema":6025,"tries":6026,"annte":6027,"hole":6028,"holi":6029,"stead":6030,"werdet":6031,"Arti":6032,"Außer":6033,"quit":6034,"detail":6035,"voice":6036,"Montag":6037,"gleiche":6038,"Motor":6039,"translate":6040,"promised":6041,"Europe":6042,"Unsere":6043,"absolute":6044,"necessary":6045,"Gefängnis":6046,"Ohne":6047,"dish":6048,"danken":6049,"nö":6050,"uld":6051,"stolz":6052,"beha":6053,"seat":6054,"Schaden":6055,"wolle":6056,"Geist":6057,"price":6058,"Stimme":6059,"grund":6060,"produ":6061,"Nothing":6062,"standing":6063,"letzter":6064,"Schuhe":6065,"tures":6066,"Übersetz":6067,"träum":6068,"ändert":6069,"missing":6070,"gelegt":6071,"glasses":6072,"Mühe":6073,"perfect":6074,"Artikel":6075,"\",":6076,"Oc":6077,"Put":6078,"hid":6079,"pati":6080,"sus":6081,"scre":6082,"unbe":6083,"bekommt":6084,"held":6085,"gold":6086,"ility":6087,"selben":6088,"friendly":6089,"Proje":6090,"gebrochen":6091,"schlug":6092,"dire":6093,"solve":6094,"Bring":6095,"langsam":6096,"Bericht":6097,"choice":6098,"chocol":6099,"opened":6100,"schlagen":6101,"sleeping":6102,"television":6103,"Gebäude":6104,"14":6105,"Gä":6106,"La":6107,"bild":6108,"energ":6109,"state":6110,"alter":6111,"govern":6112,"warst":6113,"Erkl":6114,"moved":6115,"board":6116,"antwort":6117,"wood":6118,"ext":6119,"aked":6120,"guys":6121,"forest":6122,"Prüfung":6123,"watched":6124,"pictures":6125,"realized":6126,"genauso":6127,"benutzen":6128,"Roman":6129,"murder":6130,"October":6131,"Dro":6132,"Glas":6133,"Hallo":6134,"Nähe":6135,"ike":6136,"pick":6137,"tong":6138,"wend":6139,"erwartet":6140,"indem":6141,"oned":6142,"deli":6143,"edu":6144,"trage":6145,"griff":6146,"propo":6147,"anzig":6148,"konnten":6149,"showed":6150,"smart":6151,"wusst":6152,"listening":6153,"zwanzig":6154,"travel":6155,"Wochenende":6156,"cientists":6157,"läuft":6158,"government":6159,"60":6160,"Tro":6161,"Wen":6162,"bas":6163,"camera":6164,"dau":6165,"licht":6166,"rent":6167,"asleep":6168,"isiert":6169,"eins":6170,"teuer":6171,"deep":6172,"alive":6173,"schie":6174,"verz":6175,"allerg":6176,"urm":6177,"urs":6178,"aufs":6179,"idge":6180,"mitted":6181,"yours":6182,"iens":6183,"Kindern":6184,"path":6185,"Strand":6186,"Thom":6187,"sität":6188,"gefährlich":6189,"interessiert":6190,"taxi":6191,"50":6192,"Mich":6193,"Macht":6194,"Nimm":6195,"bath":6196,"bahn":6197,"jok":6198,"sad":6199,"tust":6200,"chess":6201,"seeing":6202,"verm":6203,"due":6204,"Schn":6205,"bored":6206,"Any":6207,"Verg":6208,"affe":6209,"prove":6210,"hinein":6211,"Eines":6212,"führt":6213,"keiten":6214,"bedingt":6215,"satis":6216,"Lassen":6217,"harder":6218,"lustig":6219,"fortunately":6220,"immediately":6221,"chocolate":6222,"Bre":6223,"Mag":6224,"Pat":6225,"avo":6226,"kno":6227,"sity":6228,"zten":6229,"üge":6230,"chicken":6231,"ined":6232,"einigen":6233,"ret":6234,"orben":6235,"verheiratet":6236,"wash":6237,"Mark":6238,"Schr":6239,"manchmal":6240,"cancer":6241,"apo":6242,"nachdem":6243,"contr":6244,"könnt":6245,"Feier":6246,"breath":6247,"speaker":6248,"green":6249,"century":6250,"merksam":6251,"Kult":6252,"film":6253,"ring":6254,"vater":6255,"ötet":6256,"erne":6257,"gefr":6258,"bey":6259,"lecht":6260,"defin":6261,"iron":6262,"haf":6263,"gesp":6264,"wore":6265,"vorsicht":6266,"grap":6267,"anderer":6268,"fühl":6269,"prepar":6270,"fused":6271,"asking":6272,"weekend":6273,"Fahren":6274,"grandmother":6275,"bike":6276,"Könntest":6277,"Ser":6278,"Those":6279,"fau":6280,"kalt":6281,"ns":6282,"zial":6283,"ird":6284,"schten":6285,"verboten":6286,"achtet":6287,"Well":6288,"oken":6289,"Gegen":6290,"ount":6291,"Rei":6292,"studied":6293,"geschickt":6294,"ächlich":6295,"richten":6296,"smile":6297,"vollkommen":6298,"Großvater":6299,"eigene":6300,"notice":6301,"darfst":6302,"Regierung":6303,"studiert":6304,"Küche":6305,"village":6306,"Freiheit":6307,"Portug":6308,"Schreibtisch":6309,"Mas":6310,"Tor":6311,"cau":6312,"cop":6313,"pet":6314,"rup":6315,"twent":6316,"erw":6317,"erkann":6318,"inted":6319,"stimmen":6320,"angefangen":6321,"arrest":6322,"isation":6323,"text":6324,"begle":6325,"nobody":6326,"imp":6327,"warf":6328,"worse":6329,"zeigt":6330,"poison":6331,"conv":6332,"ruf":6333,"waste":6334,"player":6335,"happens":6336,"Mond":6337,"Rolle":6338,"pressed":6339,"Form":6340,"nahe":6341,"amili":6342,"leaves":6343,"Obwohl":6344,"kümmert":6345,"Energie":6346,"geführt":6347,"kitchen":6348,"Amerikaner":6349,"Car":6350,"Gas":6351,"Hok":6352,"Lay":6353,"Tat":6354,"cro":6355,"eight":6356,"opp":6357,"stam":6358,"bee":6359,"ork":6360,"legt":6361,"irn":6362,"vest":6363,"woke":6364,"shar":6365,"örder":6366,"iko":6367,"platz":6368,"stra":6369,"nahmen":6370,"singen":6371,"crit":6372,"öffnet":6373,"schuldig":6374,"mäß":6375,"Weihnacht":6376,"absolutely":6377,"Rück":6378,"Ton":6379,"ban":6380,"date":6381,"eth":6382,"list":6383,"sitting":6384,"tan":6385,"yer":6386,"stütz":6387,"spann":6388,"Weise":6389,"herein":6390,"safe":6391,"mood":6392,"prin":6393,"proud":6394,"ifft":6395,"fügen":6396,"großer":6397,"markt":6398,"schlä":6399,"reser":6400,"Los":6401,"wonderful":6402,"cookies":6403,"benutzt":6404,"angerufen":6405,"Glaubst":6406,"squir":6407,"hilft":6408,"received":6409,"energy":6410,"Hunde":6411,"Holz":6412,"keiner":6413,"nchen":6414,"stimm":6415,"ativ":6416,"rech":6417,"ller":6418,"unbedingt":6419,"verab":6420,"abo":6421,"wicke":6422,"spl":6423,"bert":6424,"stellte":6425,"Schoko":6426,"werk":6427,"kleiner":6428,"kleines":6429,"special":6430,"Freude":6431,"füllt":6432,"built":6433,"wenden":6434,"zeiten":6435,"2013":6436,"walking":6437,"examination":6438,"erzählt":6439,"Polizist":6440,"Probleme":6441,"Finger":6442,"Mor":6443,"Näch":6444,"Pan":6445,"Zie":6446,"lte":6447,"mp":6448,"pur":6449,"erlau":6450,"gewä":6451,"behaup":6452,"schütz":6453,"uren":6454,"lier":6455,"Wirklich":6456,"Vertrauen":6457,"shirt":6458,"besuch":6459,"intern":6460,"sprachen":6461,"brecher":6462,"kostet":6463,"Muttersprache":6464,"angene":6465,"ording":6466,"subject":6467,"besonders":6468,"Dien":6469,"Hut":6470,"Kör":6471,"cand":6472,"fied":6473,"ffel":6474,"gä":6475,"ither":6476,"mutter":6477,"piel":6478,"zerst":6479,"anc":6480,"remain":6481,"aue":6482,"hafen":6483,"tige":6484,"drück":6485,"Beis":6486,"concert":6487,"rufe":6488,"ruhig":6489,"grew":6490,"volle":6491,"Neu":6492,"arrive":6493,"taste":6494,"surprise":6495,"intelligent":6496,"Anfang":6497,"kissed":6498,"Dre":6499,"kopf":6500,"ron":6501,"tausend":6502,"wesen":6503,"reise":6504,"alen":6505,"waschen":6506,"spoken":6507,"ürger":6508,"werb":6509,"siehst":6510,"prize":6511,"Verb":6512,"amed":6513,"Gesell":6514,"Freunden":6515,"ousand":6516,"Mantel":6517,"Arbeits":6518,"largest":6519,"199":6520,"radio":6521,"horse":6522,"system":6523,"cently":6524,"laugh":6525,"Universität":6526,"castle":6527,"recogn":6528,"Thomas":6529,"fault":6530,"Acc":6531,"Ball":6532,"Han":6533,"Keine":6534,"Never":6535,"kür":6536,"nun":6537,"ugel":6538,"wes":6539,"erhalten":6540,"stick":6541,"orgt":6542,"lett":6543,"scher":6544,"denkt":6545,"verliebt":6546,"igion":6547,"peace":6548,"action":6549,"nachts":6550,"Beweg":6551,"pers":6552,"Seiten":6553,"pair":6554,"Vorschlag":6555,"öffent":6556,"Flughafen":6557,"science":6558,"Millionen":6559,"Mathematik":6560,"Stock":6561,"überrascht":6562,"protect":6563,"apartment":6564,"übrig":6565,"Kunst":6566,"Ak":6567,"Bed":6568,"Dumm":6569,"Fä":6570,"Pun":6571,"center":6572,"kor":6573,"south":6574,"wö":6575,"üben":6576,"entire":6577,"thor":6578,"teile":6579,"regre":6580,"leist":6581,"verwir":6582,"kehrt":6583,"weis":6584,"lock":6585,"hasse":6586,"dressed":6587,"ulation":6588,"Auge":6589,"stru":6590,"Seid":6591,"gestorben":6592,"bereiten":6593,"Unterschied":6594,"policeman":6595,"pleased":6596,"threw":6597,"entdeckt":6598,"japanische":6599,"Fol":6600,"Flasche":6601,"Kauf":6602,"loud":6603,"nummer":6604,"raus":6605,"wine":6606,"Äpfel":6607,"teste":6608,"ors":6609,"seld":6610,"dep":6611,"iminal":6612,"tra":6613,"acked":6614,"ildren":6615,"streng":6616,"whose":6617,"clou":6618,"schöner":6619,"dogs":6620,"Children":6621,"kraft":6622,"steller":6623,"third":6624,"Papier":6625,"gebeten":6626,"wechseln":6627,"verlieren":6628,"Frühling":6629,"twenty":6630,"seldom":6631,"Läche":6632,"Then":6633,"names":6634,"tue":6635,"ugen":6636,"wich":6637,"ym":6638,"alent":6639,"zugehen":6640,"schrank":6641,"logen":6642,"wartete":6643,"Erfahr":6644,"gesund":6645,"olum":6646,"extre":6647,"Because":6648,"contin":6649,"unterhalten":6650,"Alger":6651,"richtigen":6652,"discovered":6653,"countries":6654,"bleibt":6655,"coln":6656,"interessant":6657,"Besch":6658,"World":6659,"dürfen":6660,"Lincoln":6661,"gestohlen":6662,"temperature":6663,"ötigen":6664,"beeindruck":6665,"tongue":6666,"Lächeln":6667,"Nur":6668,"Of":6669,"hm":6670,"jä":6671,"chn":6672,"till":6673,"ierten":6674,"fruit":6675,"liehen":6676,"brach":6677,"Gefühl":6678,"daher":6679,"drug":6680,"shoul":6681,"wered":6682,"laut":6683,"eats":6684,"damals":6685,"fired":6686,"singing":6687,"drinking":6688,"schreck":6689,"caused":6690,"arrested":6691,"Gre":6692,"Hä":6693,"Jup":6694,"Jedes":6695,"Since":6696,"Two":6697,"Wa":6698,"Wr":6699,"York":6700,"fill":6701,"mte":6702,"rare":6703,"tze":6704,"church":6705,"inet":6706,"uni":6707,"veget":6708,"hob":6709,"lake":6710,"older":6711,"France":6712,"affen":6713,"gelöst":6714,"Alko":6715,"höch":6716,"Taschen":6717,"months":6718,"pleasant":6719,"event":6720,"gespielt":6721,"Jupiter":6722,"By":6723,"Dok":6724,"Here":6725,"Kiste":6726,"bü":6727,"cats":6728,"custom":6729,"jün":6730,"vious":6731,"wü":6732,"ended":6733,"information":6734,"stab":6735,"stimme":6736,"ising":6737,"gelt":6738,"lead":6739,"meat":6740,"ilome":6741,"ict":6742,"fact":6743,"pool":6744,"except":6745,"ideas":6746,"Unser":6747,"straß":6748,"hörnchen":6749,"stuff":6750,"newsp":6751,"ilet":6752,"helped":6753,"Manche":6754,"Manchmal":6755,"ärger":6756,"shot":6757,"Loch":6758,"rechtzeitig":6759,"Ihrem":6760,"drives":6761,"freundlich":6762,"Führer":6763,"gemeinsam":6764,"holiday":6765,"squirrel":6766,"Bet":6767,"Kaum":6768,"Pri":6769,"Wal":6770,"Zwischen":6771,"Zauber":6772,"fie":6773,"lu":6774,"nennen":6775,"zunehmen":6776,"ines":6777,"einge":6778,"return":6779,"bestehen":6780,"dev":6781,"imist":6782,"sahen":6783,"jemandem":6784,"acted":6785,"vierzig":6786,"easier":6787,"Immer":6788,"knapp":6789,"engine":6790,"zeichen":6791,"considered":6792,"reparieren":6793,"Sicherheit":6794,"Temper":6795,"erledigen":6796,"mitzuteilen":6797,"patient":6798,"Wirklichkeit":6799,"straße":6800,"Ad":6801,"Jes":6802,"ax":6803,"cir":6804,"cute":6805,"jump":6806,"ks":6807,"lay":6808,"round":6809,"täu":6810,"ari":6811,"requ":6812,"iratet":6813,"meln":6814,"terrible":6815,"aufge":6816,"umgehen":6817,"ford":6818,"bother":6819,"prü":6820,"grass":6821,"anywhere":6822,"shy":6823,"ünkt":6824,"guitar":6825,"heiten":6826,"suffer":6827,"großes":6828,"brauchte":6829,"geheiratet":6830,"Steuer":6831,"höflich":6832,"Good":6833,"Großmutter":6834,"schaften":6835,"lawyer":6836,"experience":6837,"barely":6838,"Canadian":6839,"video":6840,"Jesus":6841,"Aut":6842,"Make":6843,"dor":6844,"fliegen":6845,"ido":6846,"kan":6847,"kten":6848,"lker":6849,"namen":6850,"thousand":6851,"gehabt":6852,"desto":6853,"entfern":6854,"feed":6855,"lade":6856,"wollt":6857,"Ansicht":6858,"Verkauf":6859,"Arme":6860,"Unfortunately":6861,"pretended":6862,"Produ":6863,"club":6864,"solche":6865,"Beruf":6866,"Überras":6867,"schlechter":6868,"Fußball":6869,"Lehrerin":6870,"Klima":6871,"meaning":6872,"Während":6873,"enemy":6874,"verwendet":6875,"judge":6876,"Alkohol":6877,"Temperatur":6878,"Bund":6879,"Ir":6880,"Jim":6881,"Natur":6882,"Säu":6883,"bauen":6884,"dlich":6885,"dad":6886,"fro":6887,"mie":6888,"sight":6889,"ächt":6890,"erreichen":6891,"anzu":6892,"redet":6893,"belong":6894,"verliebte":6895,"truck":6896,"tieren":6897,"Ergebnis":6898,"bow":6899,"übersetzen":6900,"Gefällt":6901,"Sturm":6902,"änge":6903,"deser":6904,"bye":6905,"plötzlich":6906,"hierher":6907,"quiet":6908,"Prozent":6909,"Sprich":6910,"minde":6911,"oftware":6912,"choose":6913,"wünsche":6914,"ständnis":6915,"pleasure":6916,"universe":6917,"hübsch":6918,"USA":6919,"Mittel":6920,"blame":6921,"Vergiss":6922,"Ruf":6923,"euer":6924,"hängt":6925,"lam":6926,"ride":6927,"soup":6928,"tief":6929,"wander":6930,"erfol":6931,"sta":6932,"stat":6933,"arzt":6934,"arms":6935,"telefon":6936,"uner":6937,"meister":6938,"gendet":6939,"ayed":6940,"Vergangen":6941,"Veränder":6942,"Information":6943,"Bezie":6944,"project":6945,"cars":6946,"lernte":6947,"Brille":6948,"happening":6949,"nahme":6950,"betrunken":6951,"painting":6952,"Sometimes":6953,"fishing":6954,"völker":6955,"schätzen":6956,"züglich":6957,"Frankreich":6958,"Gesellschaft":6959,"extreme":6960,"erfolgre":6961,"gendetwas":6962,"Hu":6963,"Life":6964,"Stern":6965,"Zus":6966,"gnet":6967,"ipp":6968,"kespe":6969,"lese":6970,"wein":6971,"ying":6972,"intro":6973,"anfangen":6974,"assen":6975,"ism":6976,"recently":6977,"bezahlen":6978,"ires":6979,"spir":6980,"entscheiden":6981,"mitnehmen":6982,"fried":6983,"worfen":6984,"wollten":6985,"Gewalt":6986,"shut":6987,"cons":6988,"ickte":6989,"studies":6990,"dying":6991,"richtige":6992,"shopping":6993,"dient":6994,"named":6995,"dreimal":6996,"läche":6997,"welchem":6998,"zeichnet":6999,"effe":7000,"arbeitete":7001,"history":7002,"Shakespe":7003,"Fernseher":7004,"funktioniert":7005,"Wolken":7006,"Layla":7007,"Vergangenheit":7008,"Butter":7009,"Bürger":7010,"Eg":7011,"Gle":7012,"Gold":7013,"Häl":7014,"Kamera":7015,"Miss":7016,"Por":7017,"Sun":7018,"bau":7019,"rü":7020,"yen":7021,"zin":7022,"lebte":7023,"verdient":7024,"allow":7025,"logi":7026,"idio":7027,"brit":7028,"ftig":7029,"olar":7030,"group":7031,"Verbrechen":7032,"exp":7033,"somewhere":7034,"Read":7035,"Union":7036,"acken":7037,"Woher":7038,"apples":7039,"Gras":7040,"pflan":7041,"ganzes":7042,"verschieden":7043,"erklär":7044,"enjoyed":7045,"Schmerzen":7046,"Rechner":7047,"responsi":7048,"respect":7049,"Reihe":7050,"mindestens":7051,"introdu":7052,"Et":7053,"Gut":7054,"Lauf":7055,"aver":7056,"ado":7057,"cuse":7058,"fan":7059,"fif":7060,"nut":7061,"phe":7062,"risk":7063,"esh":7064,"geld":7065,"bekam":7066,"auben":7067,"schutz":7068,"verkauft":7069,"verurs":7070,"weisen":7071,"rob":7072,"traur":7073,"friger":7074,"geschen":7075,"gesetzt":7076,"ennst":7077,"präch":7078,"iffen":7079,"ounds":7080,"happiness":7081,"fühlt":7082,"welcher":7083,"disappo":7084,"airport":7085,"Mitg":7086,"younger":7087,"Weltraum":7088,"raining":7089,"gerecht":7090,"Konz":7091,"cooking":7092,"ängig":7093,"appeared":7094,"Schmerz":7095,"links":7096,"succeed":7097,"Erklärung":7098,"According":7099,"16":7100,"Blau":7101,"Dann":7102,"Ve":7103,"cla":7104,"ginge":7105,"ktr":7106,"wins":7107,"chtern":7108,"heil":7109,"haps":7110,"forced":7111,"forward":7112,"saved":7113,"mensch":7114,"fail":7115,"failed":7116,"davor":7117,"pose":7118,"uell":7119,"sheep":7120,"gelte":7121,"geblieben":7122,"beliebt":7123,"single":7124,"trächt":7125,"America":7126,"drinks":7127,"Tasche":7128,"Excuse":7129,"songs":7130,"wallet":7131,"schließen":7132,"university":7133,"schrieb":7134,"ünstler":7135,"Sorry":7136,"cards":7137,"Politiker":7138,"nützlich":7139,"Knopf":7140,"apologi":7141,"above":7142,"Dach":7143,"Ele":7144,"Nahr":7145,"Zwill":7146,"km":7147,"linge":7148,"match":7149,"ichhörnchen":7150,"isa":7151,"reisen":7152,"gestr":7153,"bewusst":7154,"irgendetwas":7155,"aly":7156,"weak":7157,"cel":7158,"feet":7159,"indung":7160,"Schloss":7161,"Gefallen":7162,"glück":7163,"getötet":7164,"master":7165,"upon":7166,"active":7167,"pot":7168,"sagst":7169,"Sport":7170,"gescho":7171,"gebil":7172,"fluss":7173,"Decke":7174,"Trink":7175,"bigger":7176,"Besuch":7177,"shall":7178,"sym":7179,"Denken":7180,"Urlaub":7181,"crime":7182,"Erdbe":7183,"olumbus":7184,"Konzert":7185,"Ach":7186,"Bill":7187,"Ky":7188,"Met":7189,"blieb":7190,"ky":7191,"mith":7192,"rate":7193,"rumor":7194,"ttet":7195,"befre":7196,"autom":7197,"schaute":7198,"memor":7199,"wem":7200,"rowed":7201,"agre":7202,"cean":7203,"entlassen":7204,"Verantwort":7205,"Leuten":7206,"hadn":7207,"button":7208,"Reis":7209,"gewonnen":7210,"Soll":7211,"useful":7212,"ments":7213,"Mode":7214,"mistaken":7215,"kurze":7216,"horses":7217,"sycho":7218,"handeln":7219,"Should":7220,"laughed":7221,"Kurz":7222,"suddenly":7223,"Gruppe":7224,"Yesterday":7225,"behavi":7226,"Beispiel":7227,"80":7228,"Atem":7229,"Bud":7230,"Lö":7231,"Lat":7232,"Na":7233,"Paul":7234,"bal":7235,"cing":7236,"cated":7237,"liter":7238,"pünkt":7239,"satz":7240,"ume":7241,"üte":7242,"throw":7243,"bezahlt":7244,"debt":7245,"irr":7246,"schrift":7247,"note":7248,"wever":7249,"usst":7250,"ungl":7251,"ilar":7252,"französ":7253,"boden":7254,"ätz":7255,"account":7256,"poli":7257,"Japanisch":7258,"ziehe":7259,"Brit":7260,"begin":7261,"slept":7262,"Onkel":7263,"letters":7264,"regnen":7265,"ossen":7266,"einzigen":7267,"Emp":7268,"Kleidung":7269,"Halb":7270,"Schauspieler":7271,"proposal":7272,"Körper":7273,"regret":7274,"pünktlich":7275,"Bil":7276,"Dür":7277,"Eichhörnchen":7278,"Fast":7279,"Hol":7280,"Mu":7281,"Sam":7282,"Vö":7283,"baseball":7284,"ehrlich":7285,"häu":7286,"oven":7287,"sauber":7288,"zed":7289,"öß":7290,"instead":7291,"asha":7292,"atsch":7293,"ises":7294,"verbre":7295,"aufmerksam":7296,"Schließ":7297,"Wegen":7298,"ischt":7299,"Stand":7300,"selber":7301,"ules":7302,"dirty":7303,"könne":7304,"könnten":7305,"straw":7306,"Noch":7307,"gewusst":7308,"glaubte":7309,"Programm":7310,"kaufte":7311,"minute":7312,"unseres":7313,"birds":7314,"Something":7315,"ignor":7316,"Geduld":7317,"streets":7318,"Schwimm":7319,"condition":7320,"fordert":7321,"middle":7322,"Zweifel":7323,"lady":7324,"Projekt":7325,"satisfied":7326,"avoid":7327,"Überraschung":7328,"Druck":7329,"Gitar":7330,"Kein":7331,"Sil":7332,"Sänger":7333,"Time":7334,"ply":7335,"rice":7336,"inten":7337,"stair":7338,"anten":7339,"anrufen":7340,"returned":7341,"gehol":7342,"heben":7343,"meant":7344,"abroad":7345,"add":7346,"Erst":7347,"Schreiben":7348,"Schrift":7349,"hnte":7350,"wohin":7351,"ices":7352,"priv":7353,"Lehr":7354,"comfor":7355,"Aren":7356,"convers":7357,"quar":7358,"klug":7359,"ackt":7360,"rude":7361,"anzie":7362,"fläche":7363,"Sprach":7364,"dium":7365,"finds":7366,"welcome":7367,"weeks":7368,"öffnete":7369,"schafft":7370,"Nichts":7371,"similar":7372,"smoke":7373,"politic":7374,"schwester":7375,"karte":7376,"Kanadier":7377,"trieb":7378,"vorsichtig":7379,"Bundes":7380,"Apr":7381,"Auss":7382,"Nun":7383,"Tagen":7384,"cab":7385,"hes":7386,"ius":7387,"pat":7388,"ption":7389,"wake":7390,"ügt":7391,"author":7392,"schicken":7393,"schirm":7394,"verläss":7395,"imen":7396,"wice":7397,"edom":7398,"solange":7399,"sparen":7400,"bern":7401,"entschuld":7402,"stecken":7403,"gress":7404,"dagegen":7405,"Regeln":7406,"obvious":7407,"eln":7408,"üsse":7409,"lautet":7410,"müsste":7411,"izin":7412,"brochen":7413,"wenige":7414,"believes":7415,"holte":7416,"Neben":7417,"Habe":7418,"surv":7419,"Komment":7420,"schlechte":7421,"Jemand":7422,"trotz":7423,"Char":7424,"logy":7425,"gewöhnt":7426,"awake":7427,"zwungen":7428,"Street":7429,"hoping":7430,"kaido":7431,"message":7432,"Kirche":7433,"Sterne":7434,"Würden":7435,"dorthin":7436,"völkerung":7437,"geholfen":7438,"Esp":7439,"Händen":7440,"Mill":7441,"Ohren":7442,"Rücken":7443,"Ther":7444,"fat":7445,"fach":7446,"harm":7447,"nine":7448,"ria":7449,"raten":7450,"twice":7451,"ähnlich":7452,"üchte":7453,"erhält":7454,"arf":7455,"army":7456,"undet":7457,"uncle":7458,"gewohnt":7459,"geeig":7460,"seite":7461,"locked":7462,"ltig":7463,"lafen":7464,"brain":7465,"Gehen":7466,"komisch":7467,"upset":7468,"ätter":7469,"ihres":7470,"pocket":7471,"express":7472,"Betr":7473,"riet":7474,"Einzel":7475,"besorgt":7476,"würdig":7477,"geschlafen":7478,"Seit":7479,"Herbst":7480,"wai":7481,"Jahrhundert":7482,"spielte":7483,"bereitet":7484,"Robo":7485,"Goo":7486,"pressure":7487,"letztes":7488,"invited":7489,"nervous":7490,"Kekse":7491,"berühmt":7492,"critic":7493,"Punkt":7494,"devil":7495,"Shakespeare":7496,"conversation":7497,"Baseball":7498,"Pop":7499,"Set":7500,"dise":7501,"ehr":7502,"echt":7503,"ians":7504,"mun":7505,"mass":7506,"sig":7507,"wing":7508,"wüs":7509,"zige":7510,"stür":7511,"stät":7512,"ismus":7513,"tory":7514,"audien":7515,"versp":7516,"spaz":7517,"Erzä":7518,"wirk":7519,"cheap":7520,"Anwalt":7521,"assist":7522,"klingt":7523,"hörst":7524,"Both":7525,"plans":7526,"shower":7527,"divor":7528,"Pres":7529,"borrowed":7530,"schönes":7531,"sorg":7532,"zeugt":7533,"Chance":7534,"Medik":7535,"schwarz":7536,"interessante":7537,"practi":7538,"Kultur":7539,"purpose":7540,"newspaper":7541,"field":7542,"comfortable":7543,"April":7544,"riage":7545,"Far":7546,"None":7547,"Pull":7548,"Text":7549,"Ziel":7550,"ctive":7551,"fließ":7552,"ji":7553,"ped":7554,"sä":7555,"stolen":7556,"anges":7557,"ieg":7558,"esca":7559,"ordent":7560,"versprach":7561,"weh":7562,"ures":7563,"aband":7564,"Marika":7565,"tiz":7566,"werfen":7567,"merken":7568,"myster":7569,"Frieden":7570,"Gehalt":7571,"gradu":7572,"follo":7573,"Wohnung":7574,"flight":7575,"kamer":7576,"treat":7577,"pulled":7578,"Mannschaft":7579,"Traum":7580,"Hawai":7581,"ski":7582,"Ort":7583,"möglicherweise":7584,"Stuhl":7585,"wünschen":7586,"destro":7587,"promise":7588,"erzählen":7589,"Königin":7590,"bietet":7591,"Fotos":7592,"Tanaka":7593,"Fleisch":7594,"kleidet":7595,"spiele":7596,"üchtig":7597,"average":7598,"stairs":7599,"Google":7600,"Medikament":7601,"Gu":7602,"Hub":7603,"Mahl":7604,"Send":7605,"Typ":7606,"dia":7607,"ient":7608,"jahr":7609,"lauf":7610,"üb":7611,"geworfen":7612,"alleine":7613,"abh":7614,"wild":7615,"wart":7616,"Wird":7617,"grüß":7618,"drank":7619,"Lear":7620,"Bedeut":7621,"cont":7622,"obil":7623,"Zeitpunkt":7624,"strahl":7625,"gotten":7626,"Nove":7627,"spruch":7628,"Spinnen":7629,"fügt":7630,"Herzen":7631,"Isn":7632,"Ausland":7633,"Meister":7634,"häre":7635,"wedding":7636,"ledge":7637,"danke":7638,"Organ":7639,"schule":7640,"Kindheit":7641,"verlor":7642,"innerhalb":7643,"scene":7644,"healthy":7645,"dropped":7646,"Fernsehen":7647,"Jackson":7648,"studieren":7649,"silent":7650,"imagine":7651,"verdienen":7652,"prepared":7653,"Hokkaido":7654,"clouds":7655,"traurig":7656,".▁":7657,"Gast":7658,"Halten":7659,"Satur":7660,"Wunder":7661,"Yen":7662,"junge":7663,"museum":7664,"page":7665,"pted":7666,"ssen":7667,"salt":7668,"sang":7669,"atmosp":7670,"reag":7671,"bekomme":7672,"denkst":7673,"verscho":7674,"verkn":7675,"nel":7676,"nett":7677,"rock":7678,"ets":7679,"ilme":7680,"zeugen":7681,"bra":7682,"brief":7683,"akter":7684,"Gelegenheit":7685,"prakt":7686,"machine":7687,"descri":7688,"explan":7689,"musik":7690,"ples":7691,"mehrere":7692,"Zeitung":7693,"answered":7694,"blö":7695,"gewann":7696,"partic":7697,"fähig":7698,"ulture":7699,"join":7700,"höre":7701,"realize":7702,"legs":7703,"Mrs":7704,"Perhaps":7705,"erinnere":7706,"scheinend":7707,"Richter":7708,"schüchtern":7709,"hübsche":7710,"führte":7711,"Treffen":7712,"Mittagessen":7713,"Prinzess":7714,"Gäste":7715,"jokes":7716,"gefragt":7717,"wütend":7718,"Priv":7719,"Zwillinge":7720,"Det":7721,"Hor":7722,"Halte":7723,"Kim":7724,"Lü":7725,"Try":7726,"Vol":7727,"Zuck":7728,"cross":7729,"dance":7730,"ffe":7731,"fängt":7732,"pä":7733,"phabe":7734,"wig":7735,"anno":7736,"einsam":7737,"teeth":7738,"ungefähr":7739,"irrt":7740,"verkaufen":7741,"keys":7742,"neck":7743,"urgent":7744,"uty":7745,"traf":7746,"tik":7747,"advis":7748,"ils":7749,"Weil":7750,"within":7751,"zeigte":7752,"antas":7753,"lieder":7754,"liebst":7755,"opt":7756,"cheese":7757,"ourselves":7758,"prob":7759,"artist":7760,"ears":7761,"Gespräch":7762,"samm":7763,"flicht":7764,"solar":7765,"boring":7766,"ungslos":7767,"Whoever":7768,"hofft":7769,"ccer":7770,"tax":7771,"election":7772,"Someone":7773,"reasons":7774,"support":7775,"fleißig":7776,"Kopfschmer":7777,"gelebt":7778,"Interesse":7779,"dentist":7780,"higher":7781,"wohner":7782,"Richtung":7783,"Radio":7784,"charac":7785,"Pferde":7786,"Weihnachten":7787,"translation":7788,"article":7789,"langweilig":7790,"besitzt":7791,"stärker":7792,"kaput":7793,"definite":7794,"gäbe":7795,"followed":7796,"explanation":7797,"Prinzessin":7798,"17":7799,"Ka":7800,"Keiner":7801,"Ris":7802,"Sof":7803,"Suppe":7804,"bour":7805,"dunkel":7806,"lachen":7807,"push":7808,"tö":7809,"tats":7810,"inchen":7811,"inven":7812,"reci":7813,"ities":7814,"toffel":7815,"heat":7816,"search":7817,"derzeit":7818,"derjenige":7819,"schau":7820,"schung":7821,"schlief":7822,"verpasst":7823,"hates":7824,"webs":7825,"forty":7826,"ticket":7827,"wohnen":7828,"vorüber":7829,"afford":7830,"Rel":7831,"concer":7832,"percent":7833,"Zeiten":7834,"carried":7835,"sammel":7836,"zweif":7837,"Spring":7838,"Freundschaft":7839,"yellow":7840,"Meter":7841,"However":7842,"mission":7843,"verschwenden":7844,"listened":7845,"Kaninchen":7846,"erzählte":7847,"Jugend":7848,"Ideen":7849,"viol":7850,"Turn":7851,"appoint":7852,"Entschuldigung":7853,"adult":7854,"Write":7855,"idiot":7856,"geschenkt":7857,"wüsste":7858,"Klar":7859,"email":7860,"hieß":7861,"ix":7862,"längst":7863,"mess":7864,"occ":7865,"rules":7866,"tlich":7867,"treiben":7868,"anto":7869,"rec":7870,"deve":7871,"schwere":7872,"ney":7873,"Marie":7874,"sogar":7875,"trick":7876,"entgegen":7877,"ilty":7878,"Schwar":7879,"Schatten":7880,"gesucht":7881,"okay":7882,"Stimmt":7883,"itete":7884,"jeal":7885,"jedoch":7886,"acke":7887,"mussten":7888,"guilty":7889,"aded":7890,"barer":7891,"writer":7892,"äufer":7893,"embar":7894,"Didn":7895,"raw":7896,"folgt":7897,"criminal":7898,"Koch":7899,"öffnen":7900,"Schulden":7901,"miles":7902,"dreams":7903,"Sprecher":7904,"climb":7905,"Übersetzung":7906,"eingeladen":7907,"practice":7908,"escape":7909,"Auch":7910,"Dank":7911,"Dunkel":7912,"Ehrlich":7913,"Machen":7914,"bein":7915,"bil":7916,"hon":7917,"jam":7918,"jour":7919,"lone":7920,"oil":7921,"sist":7922,"äumen":7923,"inno":7924,"iest":7925,"eser":7926,"unsch":7927,"itation":7928,"leisten":7929,"lehrer":7930,"irbt":7931,"schrei":7932,"schief":7933,"allt":7934,"ays":7935,"spor":7936,"beru":7937,"area":7938,"willing":7939,"faster":7940,"male":7941,"Indi":7942,"plant":7943,"suchte":7944,"idence":7945,"Fehl":7946,"glaubst":7947,"clever":7948,"morgens":7949,"älte":7950,"Chines":7951,"Deutschen":7952,"avail":7953,"fleisch":7954,"fassen":7955,"Angebot":7956,"Americans":7957,"population":7958,"seriously":7959,"küssen":7960,"Ärzte":7961,"Heimat":7962,"Sprechen":7963,"supermarket":7964,"Salz":7965,"cellent":7966,"Korea":7967,"delicious":7968,"gewählt":7969,"extremely":7970,"disease":7971,"audience":7972,"definitely":7973,"Blei":7974,"Fel":7975,"Museum":7976,"Sen":7977,"Zo":7978,"ahead":7979,"ctr":7980,"huge":7981,"chine":7982,"intend":7983,"stieß":7984,"ieht":7985,"ases":7986,"gewe":7987,"gezwungen":7988,"amaz":7989,"wid":7990,"enttäu":7991,"iers":7992,"ierig":7993,"Erwachsen":7994,"herunter":7995,"fahre":7996,"fahrer":7997,"Beim":7998,"butter":7999,"niedr":8000,"stuck":8001,"geschieht":8002,"redit":8003,"wished":8004,"bestät":8005,"bestimm":8006,"damage":8007,"dammt":8008,"nisse":8009,"cream":8010,"singer":8011,"Schluss":8012,"personal":8013,"kinds":8014,"Beson":8015,"White":8016,"getrunken":8017,"Emily":8018,"totally":8019,"results":8020,"aunt":8021,"Zahnarzt":8022,"Supermarkt":8023,"guests":8024,"Kampf":8025,"Erfahrung":8026,"disappointed":8027,"Aussicht":8028,"antasie":8029,"develop":8030,"jealous":8031,"Bäume":8032,"Disk":8033,"Pizza":8034,"Win":8035,"bon":8036,"dom":8037,"fed":8038,"ift":8039,"jedes":8040,"pfer":8041,"riss":8042,"sion":8043,"inse":8044,"ieben":8045,"total":8046,"theater":8047,"heut":8048,"vertr":8049,"verwan":8050,"neg":8051,"Schre":8052,"bru":8053,"From":8054,"faith":8055,"peten":8056,"voraus":8057,"excellent":8058,"Test":8059,"friendship":8060,"gewand":8061,"Ausl":8062,"freuen":8063,"Japaner":8064,"Monate":8065,"smann":8066,"Post":8067,"Once":8068,"finger":8069,"Christop":8070,"Spieler":8071,"evil":8072,"Verkehrsun":8073,"ebenso":8074,"kriegen":8075,"Africa":8076,"stronger":8077,"reached":8078,"nötig":8079,"Schokolade":8080,"Verbindung":8081,"agreed":8082,"website":8083,"available":8084,"enttäuscht":8085,"Ah":8086,"Eisen":8087,"Nar":8088,"National":8089,"Ohr":8090,"Rie":8091,"Tō":8092,"cried":8093,"ehmen":8094,"gun":8095,"hill":8096,"lent":8097,"mic":8098,"rannte":8099,"uert":8100,"enden":8101,"angehen":8102,"angesehen":8103,"unhappy":8104,"bear":8105,"aub":8106,"leuch":8107,"def":8108,"schul":8109,"rose":8110,"urry":8111,"benötigen":8112,"tran":8113,"entlang":8114,"aussehen":8115,"motor":8116,"ltung":8117,"langt":8118,"pel":8119,"iften":8120,"knowledge":8121,"aster":8122,"cohol":8123,"nieder":8124,"Wollen":8125,"Gesetz":8126,"füg":8127,"fütter":8128,"wisse":8129,"Sold":8130,"flat":8131,"stoß":8132,"glichen":8133,"solved":8134,"handle":8135,"Büch":8136,"sichtlich":8137,"logie":8138,"Regenschirm":8139,"jener":8140,"Tokio":8141,"Voll":8142,"error":8143,"expecting":8144,"neighbors":8145,"Teilen":8146,"Kurs":8147,"Medizin":8148,"Pferd":8149,"Russian":8150,"begleiten":8151,"princess":8152,"ashamed":8153,"spazieren":8154,"destroyed":8155,"appointment":8156,"Astron":8157,"Gö":8158,"Halt":8159,"Jungs":8160,"Kleider":8161,"Liste":8162,"Zur":8163,"baut":8164,"cu":8165,"honey":8166,"nennt":8167,"pft":8168,"tu":8169,"tap":8170,"Öff":8171,"öse":8172,"enem":8173,"ery":8174,"erwarten":8175,"eranto":8176,"ased":8177,"repe":8178,"schedu":8179,"verst":8180,"verließ":8181,"verraten":8182,"wealth":8183,"roof":8184,"roten":8185,"amount":8186,"Wege":8187,"Gebrauch":8188,"Gefahr":8189,"Gefühle":8190,"hasst":8191,"Städ":8192,"graf":8193,"somebody":8194,"conc":8195,"confused":8196,"quer":8197,"offered":8198,"appar":8199,"glaubten":8200,"baren":8201,"gebaut":8202,"Arbeiter":8203,"Nachdem":8204,"brot":8205,"firm":8206,"Ausdruck":8207,"wanger":8208,"ckets":8209,"zieht":8210,"dreamed":8211,"Tode":8212,"size":8213,"staying":8214,"folge":8215,"rechts":8216,"Kohlen":8217,"hungrig":8218,"gerettet":8219,"Schulter":8220,"käme":8221,"Gener":8222,"sounds":8223,"snake":8224,"Gründe":8225,"jünger":8226,"fifteen":8227,"Esperanto":8228,"Hawaii":8229,"abhängig":8230,"bestimmten":8231,"enemies":8232,"Gol":8233,"Juni":8234,"Kühl":8235,"Viel":8236,"dumm":8237,"fein":8238,"famili":8239,"enor":8240,"inzwischen":8241,"stieg":8242,"asst":8243,"atzen":8244,"deten":8245,"igner":8246,"anda":8247,"lohnt":8248,"usual":8249,"ette":8250,"hohe":8251,"berg":8252,"address":8253,"uchs":8254,"Schaf":8255,"Schlange":8256,"zeuge":8257,"lax":8258,"brand":8259,"bridge":8260,"Stat":8261,"ified":8262,"illness":8263,"ground":8264,"griffen":8265,"contro":8266,"speed":8267,"innt":8268,"sult":8269,"Fest":8270,"pretend":8271,"schläft":8272,"Whenever":8273,"möchtest":8274,"Aussage":8275,"Things":8276,"queen":8277,"streiten":8278,"197":8279,"Dritte":8280,"Drachen":8281,"Besche":8282,"electr":8283,"betrifft":8284,"Atmosp":8285,"salary":8286,"drop":8287,"liebsten":8288,"bemerkt":8289,"krebs":8290,"phys":8291,"sandwich":8292,"Laune":8293,"retten":8294,"1990":8295,"behavior":8296,"trotzdem":8297,"Bedeutung":8298,"concerned":8299,"21":8300,"24":8301,"Beine":8302,"Brie":8303,"Con":8304,"Father":8305,"Länder":8306,"Szen":8307,"ael":8308,"blan":8309,"dank":8310,"gho":8311,"nimm":8312,"rab":8313,"wast":8314,"ergibt":8315,"ieur":8316,"arian":8317,"gelang":8318,"zuzu":8319,"zufügen":8320,"schlau":8321,"verbringen":8322,"vertrauen":8323,"meal":8324,"meters":8325,"igar":8326,"ims":8327,"achel":8328,"neten":8329,"lots":8330,"ions":8331,"fac":8332,"Verhalten":8333,"ätsel":8334,"Legen":8335,"ienten":8336,"conom":8337,"sollst":8338,"Einer":8339,"ssig":8340,"möchten":8341,"giving":8342,"understood":8343,"Although":8344,"Grand":8345,"kochen":8346,"lerne":8347,"philoso":8348,"Brücke":8349,"Werk":8350,"dels":8351,"angenommen":8352,"autum":8353,"wears":8354,"Fahrer":8355,"Studium":8356,"headache":8357,"Umst":8358,"shame":8359,"mutlich":8360,"üße":8361,"wheel":8362,"mitteln":8363,"windigkeit":8364,"vernün":8365,"entschieden":8366,"Hochzeit":8367,"Süden":8368,"wesenheit":8369,"Dokument":8370,"Hälfte":8371,"politician":8372,"fließend":8373,"abandoned":8374,"November":8375,"amazing":8376,"Bon":8377,"Bord":8378,"Dam":8379,"Hum":8380,"Klop":8381,"Show":8382,"Scientists":8383,"Wur":8384,"hlich":8385,"ktor":8386,"müh":8387,"pan":8388,"pred":8389,"pizza":8390,"taller":8391,"esch":8392,"reiß":8393,"unwahrscheinlich":8394,"gemeinen":8395,"beträcht":8396,"istert":8397,"zubringen":8398,"noise":8399,"soccer":8400,"dust":8401,"tiere":8402,"Scher":8403,"Marys":8404,"ppel":8405,"icago":8406,"überprü":8407,"Bevölkerung":8408,"content":8409,"gelaufen":8410,"thered":8411,"foreigner":8412,"parking":8413,"gebacken":8414,"Könnt":8415,"dreh":8416,"pendent":8417,"schönen":8418,"accent":8419,"Rot":8420,"Chicago":8421,"Philoso":8422,"ilian":8423,"Streit":8424,"haupts":8425,"begeistert":8426,"slowly":8427,"ologie":8428,"woods":8429,"stammt":8430,"mäßig":8431,"reserv":8432,"Zieh":8433,"drückt":8434,"contact":8435,"Zucker":8436,"advised":8437,"sammlung":8438,"Sofa":8439,"Besser":8440,"Face":8441,"Hi":8442,"Humor":8443,"Klassen":8444,"Mer":8445,"Mother":8446,"Mord":8447,"Nase":8448,"Oma":8449,"Obst":8450,"Su":8451,"deines":8452,"euren":8453,"hang":8454,"pfen":8455,"sli":8456,"twins":8457,"winn":8458,"erfahren":8459,"lling":8460,"unt":8461,"unzu":8462,"unhöflich":8463,"itself":8464,"gehören":8465,"zukommen":8466,"vermis":8467,"meiden":8468,"nose":8469,"iment":8470,"andid":8471,"ables":8472,"admit":8473,"fehler":8474,"Gemü":8475,"math":8476,"Verspät":8477,"foto":8478,"Arab":8479,"riechen":8480,"contain":8481,"suchst":8482,"Fremd":8483,"Techn":8484,"marriage":8485,"calls":8486,"stole":8487,"freut":8488,"sitzt":8489,"feelings":8490,"Autos":8491,"heißen":8492,"attle":8493,"Übersetzen":8494,"haltung":8495,"ziges":8496,"curious":8497,"schließlich":8498,"beginnt":8499,"verbess":8500,"Ärger":8501,"Sorge":8502,"Ehemann":8503,"Hätte":8504,"officer":8505,"dishes":8506,"Michael":8507,"zerstört":8508,"shoulder":8509,"Verantwortung":8510,"President":8511,"lonely":8512,"autumn":8513,"Verspätung":8514,"\"▁":8515,"Finn":8516,"Que":8517,"Vide":8518,"Wein":8519,"duty":8520,"jet":8521,"kut":8522,"nal":8523,"rein":8524,"rauchen":8525,"ssed":8526,"takt":8527,"üre":8528,"endete":8529,"eres":8530,"chst":8531,"stirbt":8532,"annehmen":8533,"relax":8534,"behave":8535,"zustellen":8536,"verk":8537,"ammen":8538,"ushed":8539,"umgebracht":8540,"spro":8541,"step":8542,"steal":8543,"Schweiß":8544,"motiv":8545,"wohne":8546,"gerufen":8547,"Stay":8548,"Streich":8549,"dra":8550,"nachzu":8551,"Wohin":8552,"everywhere":8553,"forever":8554,"starken":8555,"zweite":8556,"joke":8557,"irgendwelche":8558,"Augenblick":8559,"relation":8560,"interessieren":8561,"bloß":8562,"eigenes":8563,"While":8564,"Menschheit":8565,"ähnelt":8566,"imagination":8567,"Krebs":8568,"Ruhe":8569,"position":8570,"schmeckt":8571,"erkannte":8572,"schützen":8573,"recognized":8574,"belongs":8575,"Etwas":8576,"Budd":8577,"öße":8578,"atmosphere":8579,"sisters":8580,"fotograf":8581,"12":8582,"Dis":8583,"Fische":8584,"Kn":8585,"Kuss":8586,"Koffer":8587,"Mt":8588,"Sand":8589,"Stell":8590,"Valent":8591,"aware":8592,"culture":8593,"dick":8594,"gage":8595,"grown":8596,"obey":8597,"pity":8598,"rund":8599,"wounded":8600,"yard":8601,"erwachsen":8602,"ining":8603,"inced":8604,"ouses":8605,"ites":8606,"geiz":8607,"behalten":8608,"bewegen":8609,"washing":8610,"umt":8611,"fordern":8612,"spread":8613,"steckte":8614,"fresh":8615,"worst":8616,"überein":8617,"vorher":8618,"machten":8619,"drücken":8620,"atest":8621,"Repub":8622,"Unglück":8623,"stren":8624,"unterscheiden":8625,"appreci":8626,"vollen":8627,"müsse":8628,"ization":8629,"Trans":8630,"wahren":8631,"Lieder":8632,"Unternehmen":8633,"Vaters":8634,"badly":8635,"picked":8636,"leichter":8637,"flex":8638,"kennengelernt":8639,"antwortete":8640,"invol":8641,"Nachrichten":8642,"changes":8643,"Termin":8644,"schlägt":8645,"verwirrt":8646,"polite":8647,"Besonder":8648,"Brown":8649,"June":8650,"Lau":8651,"Lachen":8652,"Mobil":8653,"Phy":8654,"Ren":8655,"Smo":8656,"Sob":8657,"Wunsch":8658,"Yo":8659,"camp":8660,"hiel":8661,"ju":8662,"mom":8663,"slo":8664,"uern":8665,"zz":8666,"zö":8667,"äre":8668,"ühen":8669,"ense":8670,"tei":8671,"geöffnet":8672,"bellen":8673,"ley":8674,"lehnte":8675,"irus":8676,"irren":8677,"haber":8678,"schm":8679,"hrung":8680,"neither":8681,"wasser":8682,"genannt":8683,"abends":8684,"ability":8685,"user":8686,"benach":8687,"frag":8688,"gers":8689,"akat":8690,"draw":8691,"ulous":8692,"Einige":8693,"fühlte":8694,"geschossen":8695,"großart":8696,"starke":8697,"Sozial":8698,"talks":8699,"reichte":8700,"disappeared":8701,"borrow":8702,"accused":8703,"schneller":8704,"Umwelt":8705,"196":8706,"naive":8707,"example":8708,"wondered":8709,"Hotels":8710,"forgotten":8711,"nehmer":8712,"entered":8713,"neighborhood":8714,"begraben":8715,"Without":8716,"excited":8717,"Stift":8718,"profession":8719,"Süd":8720,"seltsam":8721,"crying":8722,"stimmte":8723,"erlaubt":8724,"angeneh":8725,"persön":8726,"Dummkopf":8727,"Wait":8728,"filled":8729,"Mitglied":8730,"tatsächlich":8731,"Religion":8732,"innocent":8733,"Chinesisch":8734,"schedule":8735,"factory":8736,"300":8737,"Acht":8738,"Ahnung":8739,"Pake":8740,"Tats":8741,"Wahn":8742,"Wett":8743,"Zunge":8744,"gner":8745,"houses":8746,"kung":8747,"tes":8748,"tage":8749,"zitter":8750,"äm":8751,"anscheinend":8752,"iti":8753,"schloss":8754,"meals":8755,"among":8756,"wick":8757,"Their":8758,"umzugehen":8759,"spar":8760,"Schande":8761,"saving":8762,"model":8763,"vorne":8764,"mathemat":8765,"Verstand":8766,"assung":8767,"jemals":8768,"Beste":8769,"proper":8770,"gelb":8771,"workers":8772,"flag":8773,"zweiten":8774,"Rock":8775,"keeps":8776,"geheim":8777,"Mai":8778,"shape":8779,"kraut":8780,"stellten":8781,"versteckt":8782,"Denk":8783,"corner":8784,"drove":8785,"suggested":8786,"nonsense":8787,"incred":8788,"Spanish":8789,"details":8790,"erwischt":8791,"convinced":8792,"struction":8793,"Armee":8794,"Säugl":8795,"Veränderungen":8796,"erfolgreich":8797,"Vögel":8798,"Roboter":8799,"kaputt":8800,"violence":8801,"relationship":8802,"Republik":8803,"Sobald":8804,"Fer":8805,"Mün":8806,"Psycho":8807,"Rett":8808,"Smith":8809,"Were":8810,"Wert":8811,"Zähne":8812,"blich":8813,"cil":8814,"econom":8815,"flying":8816,"glo":8817,"hoff":8818,"köst":8819,"runs":8820,"ragen":8821,"sü":8822,"ues":8823,"äter":8824,"ana":8825,"anzur":8826,"arg":8827,"armen":8828,"reten":8829,"lls":8830,"bemü":8831,"orn":8832,"istet":8833,"schmut":8834,"melt":8835,"weird":8836,"neuer":8837,"amüs":8838,"absor":8839,"located":8840,"trank":8841,"aufgehört":8842,"feucht":8843,"stepped":8844,"Schick":8845,"managed":8846,"anta":8847,"liegst":8848,"überflü":8849,"ific":8850,"selbe":8851,"Verbrecher":8852,"drag":8853,"Inse":8854,"poem":8855,"Reden":8856,"earlier":8857,"hinder":8858,"besorgen":8859,"klin":8860,"klass":8861,"beenden":8862,"blau":8863,"Few":8864,"äuse":8865,"Hauses":8866,"kost":8867,"Lieb":8868,"believed":8869,"Whose":8870,"Untersuch":8871,"Unterstütz":8872,"understanding":8873,"Blätter":8874,"2011":8875,"nächstes":8876,"Fuji":8877,"genauer":8878,"Möchten":8879,"Worten":8880,"fünfzig":8881,"Glücklich":8882,"paying":8883,"regnet":8884,"farmer":8885,"geleistet":8886,"stets":8887,"Telefonnummer":8888,"Richtige":8889,"schriften":8890,"schätzt":8891,"näher":8892,"Fernseh":8893,"approach":8894,"Drogen":8895,"beeilen":8896,"ärgert":8897,"squirrels":8898,"geschoss":8899,"kyō":8900,"private":8901,"verschoben":8902,"Volk":8903,"Risiko":8904,"Diskuss":8905,"Tōkyō":8906,"anzurufen":8907,"Unterstützung":8908,"Gree":8909,"Har":8910,"Hins":8911,"Kälte":8912,"Nä":8913,"Pal":8914,"Rome":8915,"Tun":8916,"Treib":8917,"Uran":8918,"Won":8919,"Wicht":8920,"Women":8921,"pine":8922,"soul":8923,"tast":8924,"yl":8925,"chnet":8926,"angesch":8927,"reut":8928,"unkl":8929,"ito":8930,"itam":8931,"itts":8932,"tod":8933,"toilet":8934,"geko":8935,"leb":8936,"lean":8937,"seits":8938,"hale":8939,"zufä":8940,"zuhause":8941,"schalten":8942,"schreibt":8943,"verspä":8944,"improve":8945,"achsen":8946,"liert":8947,"force":8948,"spart":8949,"annten":8950,"ceiling":8951,"fehl":8952,"Erkä":8953,"stest":8954,"mitte":8955,"Hex":8956,"sale":8957,"moving":8958,"geraten":8959,"überaus":8960,"checked":8961,"Angel":8962,"Vergn":8963,"apier":8964,"India":8965,"Leider":8966,"obje":8967,"ferien":8968,"strö":8969,"weiße":8970,"igem":8971,"führer":8972,"Letz":8973,"haust":8974,"zählen":8975,"Abwesenheit":8976,"Konkur":8977,"hältst":8978,"salad":8979,"azier":8980,"Exper":8981,"zeichnete":8982,"advant":8983,"Schwimmen":8984,"cycle":8985,"mächt":8986,"Staat":8987,"ündung":8988,"effort":8989,"Speak":8990,"threaten":8991,"absolut":8992,"European":8993,"Häuser":8994,"rarely":8995,"patience":8996,"Organisation":8997,"Facebook":8998,"Insekten":8999,"Liebhaber":9000,"Diskussion":9001,"Hinsicht":9002,"Erkältung":9003,"Vergnügen":9004,"Affen":9005,"Bur":9006,"Bade":9007,"Jap":9008,"Kop":9009,"Muss":9010,"Mauer":9011,"Maul":9012,"Pil":9013,"Sa":9014,"Vier":9015,"hink":9016,"mate":9017,"pill":9018,"scientists":9019,"vator":9020,"äuch":9021,"erfüllt":9022,"ina":9023,"inen":9024,"reif":9025,"repair":9026,"unable":9027,"towel":9028,"bezeichnet":9029,"schwanger":9030,"verfügt":9031,"weib":9032,"wasche":9033,"lige":9034,"lips":9035,"Siehst":9036,"aufgeben":9037,"senden":9038,"tial":9039,"feier":9040,"Schon":9041,"motion":9042,"worum":9043,"lap":9044,"woo":9045,"wobei":9046,"wiesen":9047,"übernach":9048,"überzeugt":9049,"Gewicht":9050,"Vertrag":9051,"Verdammt":9052,"Ingen":9053,"pos":9054,"whatever":9055,"Arten":9056,"reibst":9057,"hinaus":9058,"lasst":9059,"obwohl":9060,"sonn":9061,"sonder":9062,"gefiel":9063,"gefühl":9064,"hörer":9065,"ahmen":9066,"schenken":9067,"Also":9068,"Sehen":9069,"Warst":9070,"greatest":9071,"voted":9072,"calling":9073,"schei":9074,"childhood":9075,"losing":9076,"freedom":9077,"welve":9078,"Geschlecht":9079,"teachers":9080,"flood":9081,"biggest":9082,"attacked":9083,"Kommen":9084,"Student":9085,"Zufall":9086,"nature":9087,"Draußen":9088,"sleepy":9089,"elected":9090,"license":9091,"fünfzehn":9092,"handel":9093,"schwieriger":9094,"Phantasie":9095,"sweater":9096,"passengers":9097,"foolish":9098,"Sundays":9099,"figure":9100,"Hügel":9101,"Feind":9102,"träumt":9103,"crossed":9104,"behauptet":9105,"besuchte":9106,"Handels":9107,"Schriftsteller":9108,"divorced":9109,"strahlung":9110,"adults":9111,"Winkel":9112,"Kühlschrank":9113,"familiar":9114,"control":9115,"Bescheid":9116,"philosophy":9117,"predic":9118,"Guten":9119,"Nan":9120,"Rätsel":9121,"Sagen":9122,"Tut":9123,"Tru":9124,"Water":9125,"Wesen":9126,"eff":9127,"fere":9128,"hide":9129,"jor":9130,"kin":9131,"kälter":9132,"lachte":9133,"män":9134,"national":9135,"soft":9136,"twelve":9137,"weinen":9138,"ödie":9139,"inary":9140,"rele":9141,"unten":9142,"gezeigt":9143,"theory":9144,"beherr":9145,"bewerb":9146,"isted":9147,"aler":9148,"zuvor":9149,"schä":9150,"schickte":9151,"vermutlich":9152,"igno":9153,"doc":9154,"uses":9155,"entschied":9156,"ausur":9157,"Hey":9158,"Schä":9159,"Schirm":9160,"Web":9161,"Weile":9162,"mob":9163,"wiegend":9164,"facts":9165,"ernen":9166,"grü":9167,"Anzug":9168,"Vertr":9169,"Leiden":9170,"örung":9171,"actor":9172,"acting":9173,"Zelt":9174,"Einzige":9175,"meint":9176,"identen":9177,"angemessen":9178,"ärm":9179,"Ihrer":9180,"zoo":9181,"elevator":9182,"paint":9183,"Fußboden":9184,"ordered":9185,"beln":9186,"cookie":9187,"false":9188,"ushi":9189,"Sitzung":9190,"Gift":9191,"neighbour":9192,"walls":9193,"Papst":9194,"successful":9195,"sweat":9196,"political":9197,"schweigen":9198,"Küste":9199,"Präsidenten":9200,"exciting":9201,"verschwunden":9202,"emplo":9203,"Help":9204,"Maße":9205,"Bauern":9206,"Außerird":9207,"dauert":9208,"Magst":9209,"Patienten":9210,"straight":9211,"Weihnachts":9212,"spannen":9213,"Akzent":9214,"depends":9215,"gebildet":9216,"phabet":9217,"Kopfschmerzen":9218,"Golf":9219,"Drittel":9220,"Atmosphäre":9221,"Briefe":9222,"40":9223,"Ali":9224,"Aug":9225,"Call":9226,"Fach":9227,"Kyo":9228,"Kraw":9229,"Mik":9230,"Pub":9231,"Pflicht":9232,"Ras":9233,"Red":9234,"Say":9235,"ahe":9236,"bum":9237,"gain":9238,"gate":9239,"hungen":9240,"jac":9241,"oid":9242,"ror":9243,"tte":9244,"zip":9245,"chlich":9246,"insult":9247,"stan":9248,"oms":9249,"gearbeitet":9250,"bestand":9251,"ausch":9252,"seien":9253,"zubereiten":9254,"verletz":9255,"vergangen":9256,"igend":9257,"eremon":9258,"absent":9259,"liz":9260,"tritt":9261,"tip":9262,"entspricht":9263,"bol":9264,"gerissen":9265,"bright":9266,"langer":9267,"Gegend":9268,"prüfung":9269,"Wirst":9270,"map":9271,"major":9272,"Versprechen":9273,"Indien":9274,"End":9275,"goodbye":9276,"hingehen":9277,"cool":9278,"plom":9279,"carpet":9280,"angekommen":9281,"kontro":9282,"zweimal":9283,"durchzu":9284,"shoe":9285,"places":9286,"welches":9287,"diskut":9288,"beginnen":9289,"beschlossen":9290,"Nehmen":9291,"zählt":9292,"compet":9293,"gerechnet":9294,"Plötzlich":9295,"krit":9296,"brothers":9297,"hearing":9298,"Schülern":9299,"Todes":9300,"Urteil":9301,"frühstück":9302,"humor":9303,"Papa":9304,"Glauben":9305,"Personen":9306,"expert":9307,"silence":9308,"verbracht":9309,"value":9310,"powerful":9311,"professor":9312,"Möglichkeiten":9313,"Hättest":9314,"calm":9315,"Mehrheit":9316,"Korean":9317,"dauern":9318,"allergic":9319,"knock":9320,"Schritt":9321,"beyond":9322,"circ":9323,"requires":9324,"entfernt":9325,"Gleich":9326,"potato":9327,"honor":9328,"Riesen":9329,"mobile":9330,"Kyoto":9331,"Krawatte":9332,"Kilome":9333,"Laut":9334,"Solar":9335,"fanden":9336,"fond":9337,"ibel":9338,"kü":9339,"länd":9340,"pages":9341,"pants":9342,"rist":9343,"sour":9344,"uß":9345,"äfte":9346,"ölf":9347,"chop":9348,"chines":9349,"sty":9350,"stall":9351,"stant":9352,"asche":9353,"einziges":9354,"rechten":9355,"remark":9356,"removed":9357,"unver":9358,"unlikely":9359,"gehor":9360,"geliehen":9361,"becoming":9362,"ingu":9363,"alcohol":9364,"schauen":9365,"vermeiden":9366,"impro":9367,"weap":9368,"liar":9369,"ides":9370,"gol":9371,"goal":9372,"entwicke":9373,"adrat":9374,"mitgebracht":9375,"brave":9376,"gren":9377,"grin":9378,"cheek":9379,"Versuchen":9380,"drüben":9381,"nacht":9382,"asten":9383,"conne":9384,"finan":9385,"findest":9386,"solltet":9387,"gelingt":9388,"straft":9389,"stranger":9390,"idents":9391,"cture":9392,"sagtest":9393,"Febru":9394,"bares":9395,"wiederzusehen":9396,"sitter":9397,"Gericht":9398,"ighten":9399,"wegs":9400,"beschloss":9401,"jobs":9402,"teilte":9403,"sooner":9404,"Schlimm":9405,"Schwestern":9406,"Kartoffel":9407,"attend":9408,"richtet":9409,"zwölf":9410,"nearly":9411,"folgte":9412,"laughing":9413,"certainly":9414,"hopes":9415,"Unsinn":9416,"football":9417,"Schlafzimmer":9418,"perfekt":9419,"following":9420,"organization":9421,"nervös":9422,"Möglicherweise":9423,"fluently":9424,"official":9425,"Feinde":9426,"jumped":9427,"Gitarre":9428,"Charakter":9429,"signed":9430,"verknallt":9431,"zufällig":9432,"Mikro":9433,"diskutieren":9434,"Bir":9435,"Eing":9436,"Happ":9437,"Idi":9438,"Kandid":9439,"Ner":9440,"Nut":9441,"Pause":9442,"Tö":9443,"Wus":9444,"Wild":9445,"Waffe":9446,"bits":9447,"ften":9448,"gilt":9449,"ku":9450,"lungen":9451,"pi":9452,"phen":9453,"pliz":9454,"rise":9455,"ritt":9456,"erfü":9457,"ertragen":9458,"erhielt":9459,"charm":9460,"inden":9461,"incl":9462,"stung":9463,"thief":9464,"ichtet":9465,"gelegen":9466,"geliebt":9467,"thedr":9468,"beat":9469,"orie":9470,"sett":9471,"dere":9472,"altet":9473,"alität":9474,"verne":9475,"abst":9476,"Theater":9477,"lift":9478,"berries":9479,"wards":9480,"cele":9481,"entkommen":9482,"aussieht":9483,"Schle":9484,"überle":9485,"Frid":9486,"aker":9487,"Gest":9488,"prä":9489,"Stroh":9490,"acce":9491,"Before":9492,"Bewerb":9493,"ündete":9494,"elf":9495,"Einem":9496,"suff":9497,"geschah":9498,"preis":9499,"career":9500,"Love":9501,"matik":9502,"Schlag":9503,"complic":9504,"geredet":9505,"Handy":9506,"Mail":9507,"shadow":9508,"captain":9509,"Quadrat":9510,"traveling":9511,"photograp":9512,"Lastwagen":9513,"küsst":9514,"schwarzen":9515,"existiert":9516,"Käse":9517,"Shall":9518,"Hühn":9519,"intelligen":9520,"volution":9521,"englischen":9522,"amerikanische":9523,"Kanada":9524,"hiding":9525,"erneut":9526,"tanzen":9527,"Führerschein":9528,"Beziehung":9529,"pflanzt":9530,"automat":9531,"Bilder":9532,"entschuldigen":9533,"Privat":9534,"Detail":9535,"Lügner":9536,"Ausländer":9537,"Nancy":9538,"jacket":9539,"Elef":9540,"Mär":9541,"Mama":9542,"Ofen":9543,"Oga":9544,"Pick":9545,"Tau":9546,"Wand":9547,"fisch":9548,"gü":9549,"hug":9550,"mden":9551,"mouse":9552,"nation":9553,"naked":9554,"ping":9555,"rom":9556,"rang":9557,"sar":9558,"sorgen":9559,"taught":9560,"chim":9561,"invest":9562,"stanz":9563,"anneh":9564,"anwes":9565,"einverstanden":9566,"reply":9567,"unnen":9568,"unity":9569,"geteilt":9570,"geküsst":9571,"bef":9572,"bett":9573,"becken":9574,"aust":9575,"ingend":9576,"defe":9577,"ham":9578,"youth":9579,"schätze":9580,"iginal":9581,"loses":9582,"golf":9583,"enty":9584,"frig":9585,"antast":9586,"liefen":9587,"Stirn":9588,"grate":9589,"Verze":9590,"dringend":9591,"Leicht":9592,"Whatever":9593,"served":9594,"Einbrecher":9595,"aterial":9596,"pregn":9597,"whom":9598,"rib":9599,"durchschnitt":9600,"altes":9601,"Größe":9602,"Think":9603,"minist":9604,"solch":9605,"phie":9606,"Gerücht":9607,"pencil":9608,"mayor":9609,"ibly":9610,"accidents":9611,"Handt":9612,"wichtige":9613,"lightly":9614,"falsche":9615,"auszugehen":9616,"Benzin":9617,"furcht":9618,"square":9619,"photos":9620,"prefers":9621,"fortune":9622,"Mathematics":9623,"Italien":9624,"amerikanischen":9625,"Motorrad":9626,"scream":9627,"Gegenwart":9628,"bücher":9629,"Zusammen":9630,"spirit":9631,"introduce":9632,"befreundet":9633,"Latin":9634,"französischen":9635,"Schwimmbecken":9636,"Erwachsene":9637,"motorcycle":9638,"electric":9639,"Philosophie":9640,"Video":9641,"involved":9642,"Besonderes":9643,"professional":9644,"Publik":9645,"anwesend":9646,"42":9647,"Asi":9648,"Ask":9649,"Each":9650,"Fig":9651,"Hit":9652,"Ihm":9653,"Kas":9654,"Kid":9655,"Kugel":9656,"Maus":9657,"Merk":9658,"Nu":9659,"Sus":9660,"bom":9661,"battle":9662,"cch":9663,"cise":9664,"cash":9665,"dating":9666,"hib":9667,"kop":9668,"nic":9669,"pend":9670,"pure":9671,"san":9672,"sauer":9673,"uable":9674,"erreicht":9675,"erreichte":9676,"stone":9677,"stink":9678,"ieten":9679,"atter":9680,"isieren":9681,"geist":9682,"beweg":9683,"befinden":9684,"bezweif":9685,"iro":9686,"zumachen":9687,"schade":9688,"veran":9689,"neug":9690,"ammatik":9691,"liable":9692,"frau":9693,"Schlecht":9694,"laid":9695,"bringe":9696,"essere":9697,"wies":9698,"olon":9699,"Stär":9700,"kompeten":9701,"Verständnis":9702,"shor":9703,"nachdenken":9704,"Betrieb":9705,"commen":9706,"commun":9707,"malt":9708,"achtung":9709,"ruin":9710,"sprung":9711,"stands":9712,"Almost":9713,"starr":9714,"parked":9715,"tooth":9716,"greif":9717,"konzentr":9718,"Arbeiten":9719,"Grammatik":9720,"thoughts":9721,"Strom":9722,"pull":9723,"bedroom":9724,"Vorstell":9725,"Brand":9726,"Brust":9727,"handsome":9728,"holz":9729,"pfte":9730,"einfacher":9731,"burned":9732,"loose":9733,"Daher":9734,"geregnet":9735,"jail":9736,"eleph":9737,"offensichtlich":9738,"Somebody":9739,"Atlan":9740,"Schweiz":9741,"horrible":9742,"ketball":9743,"doctors":9744,"awful":9745,"Phili":9746,"Quatsch":9747,"Genie":9748,"ativen":9749,"schritt":9750,"growing":9751,"charge":9752,"Appar":9753,"Canada":9754,"suitcase":9755,"Italian":9756,"Keks":9757,"impression":9758,"based":9759,"Nächste":9760,"staat":9761,"Egal":9762,"explo":9763,"responsible":9764,"failure":9765,"Holmes":9766,"dankbar":9767,"Fremdsprache":9768,"flexible":9769,"Phys":9770,"hielten":9771,"wooden":9772,"gehorchen":9773,"charming":9774,"celebr":9775,"Friday":9776,"complicated":9777,"grateful":9778,"pregnant":9779,"Publikum":9780,"bezweifle":9781,"neugierig":9782,"Schlechtes":9783,"Atom":9784,"Black":9785,"Ehre":9786,"Hals":9787,"Kab":9788,"Liter":9789,"Oper":9790,"Tour":9791,"baked":9792,"dum":9793,"none":9794,"ocean":9795,"pare":9796,"sl":9797,"sätze":9798,"süß":9799,"tour":9800,"vour":9801,"wound":9802,"üste":9803,"ino":9804,"tech":9805,"rede":9806,"recommen":9807,"unschuldig":9808,"itag":9809,"geber":9810,"alarm":9811,"zulassen":9812,"denk":9813,"verhaf":9814,"wehr":9815,"ampe":9816,"wide":9817,"licken":9818,"Sieh":9819,"formen":9820,"französisch":9821,"Heil":9822,"Weis":9823,"cancel":9824,"gerät":9825,"iculous":9826,"Geht":9827,"Star":9828,"Stein":9829,"Anruf":9830,"Vergessen":9831,"extra":9832,"comments":9833,"finanzie":9834,"iken":9835,"coo":9836,"chtet":9837,"suche":9838,"interpre":9839,"weißen":9840,"stuhl":9841,"Teile":9842,"sprang":9843,"blon":9844,"forehead":9845,"Warte":9846,"helping":9847,"iziert":9848,"fuhren":9849,"freien":9850,"nissen":9851,"Träume":9852,"ließen":9853,"iologie":9854,"accustom":9855,"skirt":9856,"keeping":9857,"dancing":9858,"buried":9859,"larger":9860,"Amerika":9861,"wussten":9862,"irgendwann":9863,"Landwir":9864,"runner":9865,"hanging":9866,"egg":9867,"sofa":9868,"Shut":9869,"mountains":9870,"severe":9871,"forderte":9872,"planets":9873,"valuable":9874,"Käfig":9875,"riding":9876,"ridiculous":9877,"natürlich":9878,"Kerl":9879,"direkt":9880,"direction":9881,"opport":9882,"Produkt":9883,"Huhn":9884,"apologize":9885,"Nahrungs":9886,"memory":9887,"Kommentare":9888,"Setzen":9889,"particular":9890,"character":9891,"Fehlern":9892,"Gemüse":9893,"verbessern":9894,"Wahnsinn":9895,"Säugling":9896,"competition":9897,"accepted":9898,"accustomed":9899,"Amt":9900,"Daten":9901,"Dingen":9902,"Famili":9903,"Ganz":9904,"Hinter":9905,"Listen":9906,"Wessen":9907,"Zahl":9908,"ai":9909,"bessere":9910,"cage":9911,"couch":9912,"cases":9913,"dare":9914,"gyp":9915,"kunde":9916,"kilome":9917,"shave":9918,"whis":9919,"xid":9920,"ystem":9921,"Ägyp":9922,"ütze":9923,"erma":9924,"christ":9925,"inte":9926,"stit":9927,"angu":9928,"ancient":9929,"thro":9930,"arro":9931,"eskop":9932,"refused":9933,"toler":9934,"bew":9935,"behandeln":9936,"oranges":9937,"lehr":9938,"season":9939,"habit":9940,"hafte":9941,"istung":9942,"schaut":9943,"verge":9944,"vermögen":9945,"verändert":9946,"nest":9947,"urer":9948,"abwechseln":9949,"eds":9950,"aufgrund":9951,"entz":9952,"ausdruck":9953,"boat":9954,"landete":9955,"wiegen":9956,"aktiv":9957,"Geben":9958,"Stö":9959,"grad":9960,"daily":9961,"Verd":9962,"Verlust":9963,"ätzen":9964,"Leid":9965,"utel":9966,"nachgedacht":9967,"affair":9968,"Reicht":9969,"Reisen":9970,"shelf":9971,"Zeug":9972,"sers":9973,"obs":9974,"nurse":9975,"fert":9976,"Freitag":9977,"Tepp":9978,"Spar":9979,"Spain":9980,"apped":9981,"schlimmer":9982,"bestimmen":9983,"istenz":9984,"berecht":9985,"race":9986,"erstoff":9987,"beschäd":9988,"passport":9989,"Hose":9990,"teaching":9991,"latest":9992,"buying":9993,"Überleg":9994,"danach":9995,"colder":9996,"irgendwie":9997,"Welchen":9998,"lights":9999,"Tassen":10000,"flew":10001,"Sitz":10002,"Polizeibe":10003,"größten":10004,"invite":10005,"Krieges":10006,"Kommun":10007,"tierte":10008,"hervorragen":10009,"entschloss":10010,"wandte":10011,"Maßnahmen":10012,"crowd":10013,"holding":10014,"Diam":10015,"product":10016,"wendig":10017,"contract":10018,"Maschine":10019,"convince":10020,"Dienste":10021,"Fäh":10022,"vegetables":10023,"effect":10024,"verschiedene":10025,"menschliche":10026,"geeignet":10027,"graduated":10028,"Hubble":10029,"tricks":10030,"micro":10031,"Paket":10032,"Schicksal":10033,"effiz":10034,"kritisiert":10035,"abwechselnd":10036,"Cont":10037,"Day":10038,"Dame":10039,"Ecke":10040,"Hy":10041,"Hunder":10042,"Jung":10043,"Ku":10044,"Lungen":10045,"Läufer":10046,"Must":10047,"Pist":10048,"Respe":10049,"Sau":10050,"Treibst":10051,"Witze":10052,"Zust":10053,"awa":10054,"bid":10055,"dauer":10056,"dunkl":10057,"eded":10058,"futter":10059,"flies":10060,"gree":10061,"galt":10062,"kugel":10063,"künstler":10064,"läch":10065,"mädchen":10066,"pes":10067,"sums":10068,"wald":10069,"ält":10070,"erhö":10071,"erscheinen":10072,"incre":10073,"refriger":10074,"lly":10075,"llos":10076,"unately":10077,"unexpected":10078,"itch":10079,"gekehrt":10080,"begab":10081,"ingon":10082,"seats":10083,"hall":10084,"verdre":10085,"verhält":10086,"verwech":10087,"imit":10088,"weich":10089,"abgefahren":10090,"Markt":10091,"utzt":10092,"locker":10093,"socks":10094,"unges":10095,"entum":10096,"fridge":10097,"ausgesprochen":10098,"Hello":10099,"Hemd":10100,"West":10101,"gesicht":10102,"demand":10103,"presen":10104,"gler":10105,"favour":10106,"komple":10107,"ängen":10108,"deswegen":10109,"Lehre":10110,"posed":10111,"ankam":10112,"igens":10113,"Spazier":10114,"gewinnt":10115,"lauten":10116,"ierende":10117,"Buches":10118,"fältig":10119,"putting":10120,"Vorhaben":10121,"Vorsitzen":10122,"reicher":10123,"type":10124,"gegenseit":10125,"parts":10126,"Mehl":10127,"skin":10128,"surface":10129,"Entschluss":10130,"Orangen":10131,"Kompon":10132,"Hilf":10133,"religion":10134,"painted":10135,"Karte":10136,"dienst":10137,"licherweise":10138,"lacks":10139,"verstehst":10140,"starting":10141,"Ursprung":10142,"Garage":10143,"Zweiten":10144,"bemerken":10145,"schließend":10146,"Männ":10147,"150":10148,"Berliner":10149,"Deswegen":10150,"Tugend":10151,"Politik":10152,"spiegel":10153,"reibung":10154,"crowded":10155,"enthält":10156,"Fortunately":10157,"practic":10158,"träumte":10159,"perfectly":10160,"Artikels":10161,"Tony":10162,"öffentlichen":10163,"höchste":10164,"axis":10165,"erklärte":10166,"claims":10167,"unglücklich":10168,"British":10169,"sorgfältig":10170,"sammelte":10171,"insects":10172,"appreciate":10173,"Mobiltelefon":10174,"Hexe":10175,"Konkurren":10176,"Physik":10177,"Hunderte":10178,"Treibstoff":10179,"Col":10180,"Dä":10181,"Had":10182,"Hitze":10183,"Kate":10184,"Kolumbus":10185,"Mex":10186,"Money":10187,"Mike":10188,"Pa":10189,"Pok":10190,"Pack":10191,"Rahmen":10192,"Sapp":10193,"Santa":10194,"Tipp":10195,"Wod":10196,"Witz":10197,"blieben":10198,"cough":10199,"dat":10200,"dess":10201,"euro":10202,"fil":10203,"för":10204,"guns":10205,"jahre":10206,"mäuse":10207,"owe":10208,"pol":10209,"rau":10210,"sort":10211,"tisch":10212,"vio":10213,"ächen":10214,"indet":10215,"stande":10216,"anas":10217,"regel":10218,"gewissen":10219,"gehalt":10220,"gekostet":10221,"beweisen":10222,"ori":10223,"hea":10224,"derer":10225,"schst":10226,"schiff":10227,"verstand":10228,"impressed":10229,"local":10230,"tress":10231,"warme":10232,"adition":10233,"frustr":10234,"überlassen":10235,"übertragen":10236,"Franz":10237,"Wirtschaft":10238,"hassen":10239,"vorgeschlagen":10240,"iffe":10241,"gray":10242,"dahinter":10243,"Angesicht":10244,"exhaust":10245,"Ente":10246,"Reiß":10247,"ulär":10248,"Doctor":10249,"Arsch":10250,"progress":10251,"astische":10252,"Zellen":10253,"halbes":10254,"Einfluss":10255,"thanked":10256,"zumute":10257,"gives":10258,"helden":10259,"offiz":10260,"fülle":10261,"anzunehmen":10262,"angeboten":10263,"gewachsen":10264,"brett":10265,"brechlich":10266,"lauter":10267,"biss":10268,"schlimm":10269,"Grab":10270,"brown":10271,"fäh":10272,"garage":10273,"diam":10274,"phones":10275,"Letzte":10276,"Liebes":10277,"cially":10278,"feels":10279,"pflegt":10280,"attack":10281,"Entde":10282,"höl":10283,"crush":10284,"arbeiter":10285,"Schlacht":10286,"Problems":10287,"ordinary":10288,"relative":10289,"Chinesen":10290,"naiv":10291,"engag":10292,"Gedicht":10293,"starts":10294,"eifriger":10295,"fash":10296,"ieße":10297,"opinions":10298,"ündlich":10299,"further":10300,"Frühjahr":10301,"Universum":10302,"witch":10303,"explained":10304,"führung":10305,"distance":10306,"Deshalb":10307,"langweilen":10308,"volcan":10309,"sexuell":10310,"Absichten":10311,"ukal":10312,"langsamer":10313,"Trotz":10314,"copy":10315,"actions":10316,"Folge":10317,"continue":10318,"Verkaufs":10319,"bauten":10320,"Metall":10321,"expression":10322,"Dunkelheit":10323,"vernünftig":10324,"akatukal":10325,"köstlich":10326,"Japans":10327,"laptop":10328,"männ":10329,"Außerirdische":10330,"automatisch":10331,"refrigerator":10332,"komplett":10333,"offizie":10334,"Bleist":10335,"CO":10336,"Columbus":10337,"Dad":10338,"Fünf":10339,"Lind":10340,"Lernen":10341,"Nat":10342,"Ped":10343,"Salt":10344,"ione":10345,"scr":10346,"vitam":10347,"wörter":10348,"zit":10349,"zone":10350,"Öl":10351,"erfordert":10352,"staben":10353,"thick":10354,"ichst":10355,"repa":10356,"redete":10357,"reliable":10358,"unrecht":10359,"unless":10360,"getragen":10361,"theit":10362,"behandelt":10363,"hest":10364,"heilt":10365,"deter":10366,"decke":10367,"verdanken":10368,"diet":10369,"diejenige":10370,"weigh":10371,"abr":10372,"Mars":10373,"lion":10374,"umher":10375,"hohen":10376,"holt":10377,"Diesen":10378,"arest":10379,"Scho":10380,"mention":10381,"lance":10382,"deshalb":10383,"dry":10384,"drin":10385,"ounfall":10386,"Bel":10387,"ienen":10388,"plenty":10389,"guard":10390,"strict":10391,"unterstütz":10392,"Notiz":10393,"angegriffen":10394,"hättet":10395,"Seele":10396,"keines":10397,"schoss":10398,"monster":10399,"diary":10400,"bittet":10401,"Braz":10402,"raised":10403,"haut":10404,"ibute":10405,"Entwick":10406,"burn":10407,"compare":10408,"hungern":10409,"betrat":10410,"rotten":10411,"Klausur":10412,"handed":10413,"Spielzeug":10414,"Morgens":10415,"highly":10416,"Preise":10417,"fasc":10418,"Königs":10419,"Europa":10420,"Europä":10421,"biegen":10422,"kämp":10423,"collection":10424,"verliert":10425,"Kirsch":10426,"verdiente":10427,"midnight":10428,"Hölle":10429,"professione":10430,"begegnet":10431,"natürliche":10432,"attractive":10433,"allergisch":10434,"split":10435,"Autounfall":10436,"ächtnis":10437,"Bürgermeister":10438,"verursachte":10439,"quarrel":10440,"record":10441,"leuchten":10442,"Umständen":10443,"nalist":10444,"opportunity":10445,"kilometers":10446,"Bleistift":10447,"Ano":10448,"Ass":10449,"Bein":10450,"Bible":10451,"Date":10452,"During":10453,"Ew":10454,"Fal":10455,"II":10456,"Kö":10457,"Künstler":10458,"Mä":10459,"Mist":10460,"SA":10461,"Sur":10462,"Yu":10463,"bility":10464,"cigar":10465,"eif":10466,"founded":10467,"günst":10468,"händ":10469,"künd":10470,"nit":10471,"oben":10472,"raum":10473,"task":10474,"uff":10475,"van":10476,"vent":10477,"vain":10478,"viv":10479,"erlernen":10480,"chse":10481,"anhalten":10482,"anfing":10483,"anzusehen":10484,"einst":10485,"gekon":10486,"orange":10487,"alm":10488,"schlan":10489,"schieden":10490,"verte":10491,"mester":10492,"abor":10493,"abgele":10494,"Marath":10495,"lower":10496,"social":10497,"bench":10498,"tri":10499,"ürlich":10500,"admitted":10501,"stete":10502,"frö":10503,"Schme":10504,"Schuss":10505,"heran":10506,"lieh":10507,"überzeugen":10508,"Früher":10509,"Start":10510,"maß":10511,"Verletz":10512,"ätig":10513,"desert":10514,"dritten":10515,"shout":10516,"acqu":10517,"actress":10518,"Bee":10519,"compl":10520,"astro":10521,"hingezogen":10522,"anderem":10523,"perfor":10524,"Einen":10525,"sonntag":10526,"wält":10527,"interfere":10528,"unterwegs":10529,"üssen":10530,"geschwindigkeit":10531,"gestimmt":10532,"flour":10533,"ärgern":10534,"müsst":10535,"planned":10536,"Demo":10537,"cherry":10538,"Nachts":10539,"walks":10540,"herausgefunden":10541,"suppose":10542,"umente":10543,"hinterher":10544,"letztlich":10545,"mittags":10546,"schreien":10547,"schwarze":10548,"artige":10549,"Schönheit":10550,"Polizisten":10551,"repariert":10552,"ernsthaft":10553,"soldiers":10554,"impressive":10555,"international":10556,"remained":10557,"entfernen":10558,"Mission":10559,"responsibility":10560,"Modell":10561,"debts":10562,"praktisch":10563,"embarras":10564,"widmen":10565,"vertraut":10566,"defend":10567,"Büchern":10568,"physics":10569,"Szene":10570,"Human":10571,"hauptsächlich":10572,"Smoking":10573,"mathematics":10574,"majority":10575,"exhausted":10576,"Linda":10577,"repaired":10578,"gekonnt":10579,"sonntags":10580,"Adr":10581,"Better":10582,"Bibel":10583,"Close":10584,"Kennst":10585,"Lang":10586,"Mie":10587,"Open":10588,"Ty":10589,"Tiger":10590,"Vern":10591,"Wün":10592,"Wände":10593,"baum":10594,"flas":10595,"lat":10596,"nu":10597,"ode":10598,"rently":10599,"tight":10600,"uden":10601,"va":10602,"whale":10603,"ya":10604,"zauber":10605,"üder":10606,"erschien":10607,"ergriff":10608,"stunden":10609,"anti":10610,"analy":10611,"iety":10612,"arri":10613,"atom":10614,"temon":10615,"reig":10616,"refu":10617,"itän":10618,"beard":10619,"bewahr":10620,"bestraft":10621,"verhalten":10622,"vergeht":10623,"hro":10624,"wecken":10625,"erecht":10626,"uton":10627,"usion":10628,"spider":10629,"etze":10630,"tickets":10631,"Schrei":10632,"Wem":10633,"hnliche":10634,"gesche":10635,"gesungen":10636,"worüber":10637,"boot":10638,"ppt":10639,"demü":10640,"Franc":10641,"Geor":10642,"pray":10643,"ernä":10644,"grat":10645,"Vermögen":10646,"atell":10647,"mushro":10648,"rieb":10649,"Zeig":10650,"gefasst":10651,"spec":10652,"untersche":10653,"untergang":10654,"Spie":10655,"blumen":10656,"großartige":10657,"allest":10658,"bissen":10659,"scheu":10660,"planted":10661,"treated":10662,"stock":10663,"wandel":10664,"Profess":10665,"Dem":10666,"reiche":10667,"Bras":10668,"welchen":10669,"Lieber":10670,"Muttersprach":10671,"einfache":10672,"achtete":10673,"hauen":10674,"asks":10675,"läne":10676,"More":10677,"reality":10678,"Dafür":10679,"Drink":10680,"wichtiger":10681,"leichtes":10682,"naie":10683,"Großbrit":10684,"Denkst":10685,"Urlau":10686,"löschen":10687,"fasst":10688,"fasste":10689,"faszin":10690,"antwortet":10691,"Schultern":10692,"curity":10693,"deutig":10694,"Liebling":10695,"punished":10696,"Glaubt":10697,"Universums":10698,"independent":10699,"riesige":10700,"Ski":10701,"murders":10702,"climbed":10703,"Entschuldigen":10704,"entrum":10705,"kleide":10706,"verwenden":10707,"sports":10708,"Liisa":10709,"ladung":10710,"wette":10711,"entlichkeit":10712,"vergisst":10713,"Kapitän":10714,"Pflan":10715,"sharp":10716,"Folgen":10717,"drugs":10718,"Beziehungen":10719,"Portemon":10720,"verlässig":10721,"obviously":10722,"beinahe":10723,"Zoo":10724,"Verkehrsunfall":10725,"Öffentlichkeit":10726,"nimmst":10727,"drehte":10728,"nachzudenken":10729,"economy":10730,"Angeles":10731,"Leidenschaft":10732,"August":10733,"Kilometer":10734,"dauerte":10735,"dunklen":10736,"fashion":10737,"volcano":10738,"Natürlich":10739,"Entwicklung":10740,"fascin":10741,"embarrassed":10742,"Miete":10743,"Muttersprachler":10744,"Großbritann":10745,"Portemonnaie":10746,"Ban":10747,"Cup":10748,"Ed":10749,"Hen":10750,"ID":10751,"Kredit":10752,"Mom":10753,"Nord":10754,"Tw":10755,"Taten":10756,"Wof":10757,"equ":10758,"equal":10759,"kunden":10760,"lungs":10761,"oten":10762,"sink":10763,"sword":10764,"ühren":10765,"ieber":10766,"asy":10767,"onto":10768,"escap":10769,"eingestellt":10770,"eintausend":10771,"beth":10772,"betre":10773,"oro":10774,"orien":10775,"alphabet":10776,"verlang":10777,"vertie":10778,"metal":10779,"dieselben":10780,"washed":10781,"erem":10782,"trö":10783,"spite":10784,"Erste":10785,"stehe":10786,"mitteilen":10787,"fron":10788,"moons":10789,"laver":10790,"gery":10791,"bran":10792,"bruch":10793,"übers":10794,"pri":10795,"prof":10796,"itel":10797,"Anti":10798,"Anstellung":10799,"Verab":10800,"apers":10801,"uel":10802,"uelle":10803,"astron":10804,"persu":10805,"klü":10806,"internet":10807,"weißes":10808,"cares":10809,"geschm":10810,"appen":10811,"Seil":10812,"sammeln":10813,"parken":10814,"greifen":10815,"geblich":10816,"gebung":10817,"riere":10818,"magst":10819,"magic":10820,"Aussehen":10821,"bedau":10822,"Prof":10823,"Tran":10824,"Monster":10825,"begins":10826,"penst":10827,"schwach":10828,"daneben":10829,"surgery":10830,"colour":10831,"relig":10832,"gathered":10833,"krat":10834,"wishes":10835,"thirteen":10836,"Wahrscheinlich":10837,"liebens":10838,"lines":10839,"zeichnen":10840,"north":10841,"court":10842,"Obama":10843,"deutsche":10844,"Teller":10845,"sweet":10846,"bekannte":10847,"trusted":10848,"bedeuten":10849,"sugar":10850,"entschlossen":10851,"complaints":10852,"fighting":10853,"sells":10854,"fluence":10855,"Spanien":10856,"general":10857,"discussion":10858,"joking":10859,"korrig":10860,"schrecklich":10861,"circle":10862,"Klimawandel":10863,"lächeln":10864,"Nahrung":10865,"Erdbeben":10866,"ignorieren":10867,"survive":10868,"Pullover":10869,"optimist":10870,"invented":10871,"repeat":10872,"stealing":10873,"drawer":10874,"Ferien":10875,"document":10876,"kontroll":10877,"Eingang":10878,"cooked":10879,"vivid":10880,"Pflanzen":10881,"25":10882,"Act":10883,"Bienen":10884,"Eure":10885,"Next":10886,"Oli":10887,"Ocean":10888,"Pen":10889,"Sym":10890,"base":10891,"cities":10892,"double":10893,"ewig":10894,"fought":10895,"fett":10896,"farm":10897,"iP":10898,"kleid":10899,"kaid":10900,"läng":10901,"mere":10902,"nackt":10903,"ov":10904,"pite":10905,"pounds":10906,"ress":10907,"rust":10908,"rings":10909,"slightly":10910,"vid":10911,"wuchs":10912,"äten":10913,"äumt":10914,"endet":10915,"stom":10916,"angel":10917,"iegen":10918,"aside":10919,"argu":10920,"onas":10921,"rechte":10922,"rekt":10923,"gekl":10924,"bezüglich":10925,"lebe":10926,"igst":10927,"ternacht":10928,"robot":10929,"urz":10930,"absen":10931,"absicht":10932,"dozen":10933,"eday":10934,"sensit":10935,"spenden":10936,"etten":10937,"entgehen":10938,"frighten":10939,"uche":10940,"Schild":10941,"Wech":10942,"hergestellt":10943,"sack":10944,"mochte":10945,"icar":10946,"icked":10947,"Gemein":10948,"pra":10949,"ope":10950,"Stamm":10951,"iftet":10952,"mack":10953,"kompliz":10954,"illy":10955,"änke":10956,"dran":10957,"drinnen":10958,"bleed":10959,"shit":10960,"afé":10961,"ugly":10962,"Reifen":10963,"Unrecht":10964,"confirm":10965,"Einladung":10966,"unterschied":10967,"tunnel":10968,"rub":10969,"geschn":10970,"blin":10971,"Socken":10972,"bull":10973,"magaz":10974,"fuck":10975,"Buchstaben":10976,"publ":10977,"fälle":10978,"Mannes":10979,"resc":10980,"Allgemeinen":10981,"Rosen":10982,"Loj":10983,"versuchten":10984,"träge":10985,"Mitternacht":10986,"pical":10987,"möglichst":10988,"schweren":10989,"related":10990,"Male":10991,"elektr":10992,"lication":10993,"Minister":10994,"lettern":10995,"talen":10996,"herauszu":10997,"longest":10998,"benutze":10999,"pieces":11000,"Krähe":11001,"Briefmar":11002,"nearby":11003,"Krankenschwester":11004,"currently":11005,"freundliche":11006,"Juli":11007,"Sommerferien":11008,"cleaned":11009,"politics":11010,"traveled":11011,"Hungarian":11012,"clearly":11013,"witter":11014,"vorbeikommen":11015,"Sklaver":11016,"earthqu":11017,"suggestion":11018,"Sternen":11019,"englische":11020,"archite":11021,"operation":11022,"flugzeug":11023,"service":11024,"Versuche":11025,"fixed":11026,"verzichten":11027,"erlauben":11028,"candy":11029,"Neues":11030,"recognize":11031,"Bewegung":11032,"Fällen":11033,"Algeria":11034,"beeindruckend":11035,"Betty":11036,"bowl":11037,"erklärt":11038,"unglück":11039,"intention":11040,"Erzähl":11041,"Mahlzeiten":11042,"Sendung":11043,"blanket":11044,"überprüfen":11045,"contains":11046,"Buddhis":11047,"persönlich":11048,"threatened":11049,"financial":11050,"Happy":11051,"Nerven":11052,"Elefanten":11053,"verteid":11054,"performan":11055,"Adresse":11056,"kaidō":11057,"stomach":11058,"Sklaverei":11059,"\"?":11060,"Blo":11061,"Bad":11062,"Bart":11063,"CD":11064,"Cho":11065,"Coffee":11066,"Chop":11067,"Ei":11068,"Eink":11069,"Funk":11070,"Haut":11071,"Hurry":11072,"Kok":11073,"Mount":11074,"Opa":11075,"Reser":11076,"Ricar":11077,"South":11078,"Watch":11079,"cow":11080,"cave":11081,"fantast":11082,"gust":11083,"kla":11084,"ninet":11085,"pered":11086,"smar":11087,"swear":11088,"sätz":11089,"tied":11090,"twegen":11091,"ws":11092,"zlich":11093,"öre":11094,"ens":11095,"influence":11096,"anx":11097,"asing":11098,"onen":11099,"itung":11100,"itzen":11101,"itzer":11102,"gefe":11103,"gekümmert":11104,"beteil":11105,"befolgen":11106,"hello":11107,"legend":11108,"lecture":11109,"decl":11110,"irts":11111,"album":11112,"zulernen":11113,"vergeben":11114,"veröffent":11115,"verärgert":11116,"mete":11117,"aches":11118,"weckte":11119,"nearest":11120,"role":11121,"ambit":11122,"ably":11123,"soc":11124,"benehmen":11125,"duld":11126,"duck":11127,"cember":11128,"steckt":11129,"fressen":11130,"Schei":11131,"gesetz":11132,"mirac":11133,"langes":11134,"landed":11135,"ically":11136,"überlasse":11137,"glar":11138,"desper":11139,"Invest":11140,"Bestät":11141,"fog":11142,"prohib":11143,"earch":11144,"final":11145,"guide":11146,"beendet":11147,"wählen":11148,"otherwise":11149,"vieler":11150,"ahm":11151,"tune":11152,"whenever":11153,"Spin":11154,"insisted":11155,"writes":11156,"Islam":11157,"issue":11158,"December":11159,"typ":11160,"undete":11161,"smiled":11162,"visiting":11163,"delayed":11164,"lately":11165,"läst":11166,"träumen":11167,"weitergehen":11168,"Entfern":11169,"burst":11170,"zähl":11171,"schlechten":11172,"Bespre":11173,"formular":11174,"Karriere":11175,"examples":11176,"ength":11177,"kennenzulernen":11178,"weitere":11179,"Parks":11180,"advent":11181,"mutig":11182,"üfte":11183,"biet":11184,"invitation":11185,"cleaning":11186,"Nachbarschaft":11187,"furnit":11188,"Speaking":11189,"Pferden":11190,"receive":11191,"Russia":11192,"package":11193,"existieren":11194,"histor":11195,"entrance":11196,"wärts":11197,"Finanz":11198,"North":11199,"Norden":11200,"acceptable":11201,"Diät":11202,"täte":11203,"gentle":11204,"succeeded":11205,"Suche":11206,"bathroom":11207,"shark":11208,"depend":11209,"interessantes":11210,"eventually":11211,"suffering":11212,"Autom":11213,"conscious":11214,"survived":11215,"Saturn":11216,"Saturday":11217,"probieren":11218,"wasting":11219,"zzle":11220,"zöger":11221,"angenehme":11222,"amüsiert":11223,"Glücklicherweise":11224,"angeschaut":11225,"Ogawa":11226,"cchio":11227,"shorter":11228,"Respekt":11229,"presence":11230,"escaped":11231,"rescue":11232,"Chopin":11233,"Ricardo":11234,"veröffentlicht":11235,"furniture":11236,"43":11237,"Ale":11238,"Bas":11239,"Bere":11240,"Dir":11241,"Eile":11242,"Ereig":11243,"Fur":11244,"MP":11245,"Mid":11246,"Meinen":11247,"Mache":11248,"Pu":11249,"ST":11250,"Sicht":11251,"Swit":11252,"Software":11253,"Ul":11254,"Vul":11255,"bio":11256,"cation":11257,"dün":11258,"farbe":11259,"klang":11260,"length":11261,"mm":11262,"material":11263,"nick":11264,"nutz":11265,"og":11266,"rö":11267,"sounded":11268,"ued":11269,"vable":11270,"stunde":11271,"aner":11272,"arme":11273,"arily":11274,"eintreten":11275,"replace":11276,"redest":11277,"regeln":11278,"unte":11279,"unlängst":11280,"itis":11281,"bewer":11282,"beob":11283,"beläst":11284,"leise":11285,"sees":11286,"separ":11287,"vert":11288,"nology":11289,"west":11290,"netter":11291,"doll":11292,"lip":11293,"benahm":11294,"trou":11295,"aufhalten":11296,"aufgere":11297,"warmer":11298,"unglaub":11299,"entweder":11300,"feld":11301,"Ern":11302,"frisst":11303,"Schwert":11304,"zember":11305,"bogen":11306,"wiegt":11307,"icke":11308,"kannte":11309,"pron":11310,"prince":11311,"Wirkung":11312,"gru":11313,"grave":11314,"graben":11315,"Anlass":11316,"Anweis":11317,"Verfüg":11318,"Beit":11319,"Beide":11320,"Remember":11321,"committed":11322,"Doppel":11323,"Arg":11324,"Uni":11325,"constant":11326,"hinunter":11327,"permission":11328,"Eintr":11329,"Wieder":11330,"würd":11331,"untersuchen":11332,"ttert":11333,"tells":11334,"bles":11335,"application":11336,"helps":11337,"äuschung":11338,"cles":11339,"magnet":11340,"bestanden":11341,"garten":11342,"Dezember":11343,"Vorteil":11344,"reichend":11345,"Geruch":11346,"Gerüchte":11347,"iffst":11348,"dreht":11349,"schneide":11350,"schneidet":11351,"passion":11352,"passten":11353,"hoffen":11354,"neulich":11355,"Nachtisch":11356,"beauty":11357,"Studien":11358,"betrayed":11359,"sales":11360,"regard":11361,"Bushalte":11362,"Parkplatz":11363,"Shirt":11364,"Angewohn":11365,"rohte":11366,"außergewöhnlich":11367,"bieten":11368,"kehrte":11369,"Regal":11370,"krieg":11371,"excuse":11372,"climate":11373,"blade":11374,"Treppe":11375,"schmerz":11376,"Afrika":11377,"Scheit":11378,"Yeah":11379,"Dummheit":11380,"frozen":11381,"Gleiche":11382,"introduced":11383,"Britain":11384,"Learning":11385,"schreibe":11386,"gewandt":11387,"ghost":11388,"vermisst":11389,"plomat":11390,"Stärke":11391,"ruiniert":11392,"arrog":11393,"favourite":11394,"dessert":11395,"Brazilian":11396,"Twain":11397,"performance":11398,"Funktion":11399,"Switzer":11400,"Vulkan":11401,"Anweisungen":11402,"Bushaltestelle":11403,"27":11404,"33":11405,"500":11406,"AN":11407,"Ble":11408,"Bäumen":11409,"Dicht":11410,"Fish":11411,"Hob":11412,"Jacke":11413,"Kunden":11414,"Kolon":11415,"Nummer":11416,"Ost":11417,"Tab":11418,"Wider":11419,"afe":11420,"fate":11421,"gam":11422,"kö":11423,"kat":11424,"klo":11425,"kern":11426,"noun":11427,"nungen":11428,"oto":11429,"ole":11430,"russ":11431,"sank":11432,"software":11433,"sausdruck":11434,"silly":11435,"tau":11436,"tough":11437,"uese":11438,"wagte":11439,"zing":11440,"ötig":11441,"ühr":11442,"übt":11443,"erte":11444,"erhob":11445,"ansehen":11446,"anstatt":11447,"ieck":11448,"esie":11449,"einkaufen":11450,"request":11451,"remind":11452,"unendlich":11453,"geh":11454,"gewartet":11455,"geändert":11456,"original":11457,"helic":11458,"hahn":11459,"verse":11460,"igungs":11461,"kei":11462,"amte":11463,"amme":11464,"abend":11465,"absagen":11466,"ckten":11467,"agiere":11468,"aufstehen":11469,"forbid":11470,"feur":11471,"ausstehen":11472,"auseinander":11473,"ausländ":11474,"Heir":11475,"Schlips":11476,"werke":11477,"manage":11478,"modu":11479,"modern":11480,"woll":11481,"fty":11482,"icide":11483,"Gefangen":11484,"Staub":11485,"viet":11486,"grab":11487,"anyway":11488,"fenth":11489,"Antrag":11490,"Leistung":11491,"Entt":11492,"Aufenth":11493,"earns":11494,"permitted":11495,"gelten":11496,"besetzt":11497,"interrup":11498,"studi":11499,"unterricht":11500,"aucher":11501,"sprü":11502,"Spitz":11503,"barkeit":11504,"gestanden":11505,"vote":11506,"gebiet":11507,"wiederholen":11508,"ärbt":11509,"closer":11510,"Ausgabe":11511,"fällen":11512,"Though":11513,"Flu":11514,"Flü":11515,"Vorname":11516,"belieb":11517,"Partei":11518,"Blö":11519,"Lohn":11520,"burglar":11521,"Stehen":11522,"crash":11523,"Wasserhahn":11524,"Welpen":11525,"rains":11526,"Abends":11527,"Möbel":11528,"offenen":11529,"verschieben":11530,"answers":11531,"Nieder":11532,"heimischen":11533,"fingers":11534,"Regens":11535,"sunny":11536,"tempt":11537,"ushu":11538,"neuesten":11539,"promises":11540,"Wäre":11541,"Gesichtsausdruck":11542,"hoped":11543,"effor":11544,"Tante":11545,"begrüß":11546,"größeren":11547,"Geschäfts":11548,"Geburtstags":11549,"merkungen":11550,"karten":11551,"Luftpost":11552,"geschaffen":11553,"flüster":11554,"Kreis":11555,"Passagiere":11556,"Sterben":11557,"hinzugehen":11558,"begeg":11559,"volunte":11560,"smells":11561,"Anfänger":11562,"confess":11563,"gesamte":11564,"suspe":11565,"Portugal":11566,"Portuguese":11567,"Nächstes":11568,"Algerien":11569,"shoulders":11570,"engineer":11571,"Ergebnisse":11572,"wandern":11573,"Reading":11574,"apologized":11575,"Elektr":11576,"Kyushu":11577,"französische":11578,"ätzchen":11579,"Schauspielerin":11580,"harmful":11581,"criticized":11582,"versprochen":11583,"annoying":11584,"Christopher":11585,"transpor":11586,"Soldaten":11587,"Gött":11588,"benachrichtigen":11589,"Tatsache":11590,"property":11591,"überflüssig":11592,"advantage":11593,"Nutzen":11594,"Töchter":11595,"gültig":11596,"Apparently":11597,"Operation":11598,"inocchio":11599,"Europäischen":11600,"Demokrat":11601,"gescheit":11602,"absence":11603,"sensitive":11604,"published":11605,"earthquake":11606,"ninety":11607,"society":11608,"prohibited":11609,"Alex":11610,"aufgeregt":11611,"Verfügung":11612,"arrogant":11613,"Switzerland":11614,"helicop":11615,"54":11616,"Bach":11617,"Bam":11618,"Bald":11619,"Böse":11620,"Cor":11621,"Café":11622,"Eigent":11623,"Fil":11624,"Fangen":11625,"Gou":11626,"Gän":11627,"Gär":11628,"Güte":11629,"Hon":11630,"Lit":11631,"Ländern":11632,"Langu":11633,"Moder":11634,"Pol":11635,"Run":11636,"Rab":11637,"Runden":11638,"Tief":11639,"Van":11640,"Wander":11641,"Zit":11642,"Zentrum":11643,"ahnen":11644,"ahlen":11645,"dough":11646,"ehren":11647,"hunder":11648,"hired":11649,"mde":11650,"nap":11651,"ober":11652,"säu":11653,"sweise":11654,"uli":11655,"var":11656,"vict":11657,"zun":11658,"zieren":11659,"zheim":11660,"übel":11661,"erkenn":11662,"erwarte":11663,"indu":11664,"inhaf":11665,"sthe":11666,"states":11667,"thunder":11668,"iein":11669,"arrow":11670,"testens":11671,"unbelie":11672,"unmittel":11673,"unbekannt":11674,"ita":11675,"itär":11676,"toys":11677,"gekn":11678,"gewaschen":11679,"beil":11680,"beque":11681,"beeren":11682,"bewohner":11683,"beutel":11684,"heftig":11685,"leck":11686,"security":11687,"dear":11688,"derselben":11689,"zutage":11690,"schar":11691,"denied":11692,"veränder":11693,"verkehrt":11694,"wett":11695,"ammer":11696,"abgesehen":11697,"abgeschlossen":11698,"edle":11699,"sowie":11700,"agers":11701,"benötig":11702,"aufre":11703,"aufgenommen":11704,"aufgewachsen":11705,"Ersatz":11706,"Erleb":11707,"Dieb":11708,"mod":11709,"iak":11710,"zeigten":11711,"laster":11712,"wool":11713,"ftigen":11714,"überquer":11715,"Getr":11716,"usten":11717,"Stachel":11718,"cheer":11719,"cheating":11720,"Ango":11721,"Anzahl":11722,"Vergleich":11723,"Verhält":11724,"acy":11725,"poten":11726,"ationale":11727,"Doch":11728,"hinge":11729,"hinten":11730,"hingegangen":11731,"gelö":11732,"gelungen":11733,"queren":11734,"gib":11735,"hörten":11736,"unterhalt":11737,"sprichst":11738,"wiss":11739,"Alzheim":11740,"Sever":11741,"Segen":11742,"Heraus":11743,"starker":11744,"falling":11745,"aßen":11746,"gestür":11747,"Soweit":11748,"gebucht":11749,"äuft":11750,"kaufe":11751,"zweier":11752,"zweiter":11753,"ärme":11754,"kampf":11755,"Ausflug":11756,"ächst":11757,"Flut":11758,"kochte":11759,"Auftrag":11760,"Trag":11761,"ipien":11762,"zurückgekehrt":11763,"Gerda":11764,"Gerät":11765,"ighted":11766,"ersüchtig":11767,"fifty":11768,"raht":11769,"iolett":11770,"teilnehmen":11771,"teilweise":11772,"kennst":11773,"ibi":11774,"zehnten":11775,"schönste":11776,"function":11777,"balls":11778,"attung":11779,"bitter":11780,"ettes":11781,"schuhe":11782,"Stellen":11783,"opening":11784,"Kohl":11785,"doors":11786,"Welcher":11787,"realist":11788,"Schlitten":11789,"rained":11790,"classroom":11791,"Türkei":11792,"Kontin":11793,"älen":11794,"gale":11795,"verschaffen":11796,"sendung":11797,"Klingon":11798,"regular":11799,"reasonable":11800,"grammar":11801,"Darüber":11802,"Kragen":11803,"unkle":11804,"drown":11805,"Antwor":11806,"buildings":11807,"Notfall":11808,"ausgedrückt":11809,"Region":11810,"Streifen":11811,"Führ":11812,"Teilnehmer":11813,"wunderschöne":11814,"begren":11815,"thanks":11816,"worthy":11817,"lager":11818,"Russland":11819,"packte":11820,"gefährlichen":11821,"Stipend":11822,"Höhle":11823,"hinzufügen":11824,"Blutdruck":11825,"billigen":11826,"Schönes":11827,"Salat":11828,"Oberfläche":11829,"japanischen":11830,"besitzer":11831,"ehemal":11832,"Gruppen":11833,"gesammelt":11834,"wendung":11835,"schießen":11836,"vermute":11837,"vermissen":11838,"Brem":11839,"wickelt":11840,"candid":11841,"stabil":11842,"Veränderung":11843,"verursacht":11844,"Silber":11845,"Einzelheiten":11846,"Erzähle":11847,"wirkungen":11848,"ordentlich":11849,"occur":11850,"journey":11851,"beruht":11852,"heutzutage":11853,"verwandeln":11854,"Christoph":11855,"concentr":11856,"rabbits":11857,"Technik":11858,"Achtung":11859,"hindert":11860,"Wichtig":11861,"strömen":11862,"verneur":11863,"Bewerbung":11864,"Kids":11865,"Weisheit":11866,"Pistole":11867,"greeted":11868,"verwechselt":11869,"Spaziergang":11870,"Männern":11871,"nuclear":11872,"Buddhismus":11873,"smarter":11874,"anxious":11875,"duldig":11876,"Investition":11877,"Besprechung":11878,"unglaublich":11879,"efforts":11880,"flüsterte":11881,"Göttin":11882,"Bambus":11883,"Gouverneur":11884,"Gänse":11885,"hunderts":11886,"zunächst":11887,"inhaftiert":11888,"bequem":11889,"leckere":11890,"Achte":11891,"Asche":11892,"Bli":11893,"Dön":11894,"Draht":11895,"Fang":11896,"Faden":11897,"Filme":11898,"Gal":11899,"Gutes":11900,"Hof":11901,"Hass":11902,"Ill":11903,"Kle":11904,"Kür":11905,"Kummer":11906,"Kief":11907,"Lügen":11908,"Leser":11909,"Meiner":11910,"Opt":11911,"Opfer":11912,"Pay":11913,"Pinocchio":11914,"Ri":11915,"Rö":11916,"Rake":11917,"Runde":11918,"Rausch":11919,"Sud":11920,"Süß":11921,"Tha":11922,"Tam":11923,"Tak":11924,"Terror":11925,"Usu":11926,"Vision":11927,"Wat":11928,"Wunden":11929,"Zom":11930,"bchen":11931,"cm":11932,"din":11933,"dur":11934,"dichten":11935,"dunkle":11936,"fachen":11937,"gon":11938,"gte":11939,"gön":11940,"här":11941,"hängen":11942,"iöse":11943,"kische":11944,"lit":11945,"mmt":11946,"mile":11947,"ng":11948,"nch":11949,"rug":11950,"sung":11951,"singe":11952,"satt":11953,"süchtig":11954,"swürd":11955,"tiger":11956,"vard":11957,"wachte":11958,"ziologie":11959,"äbchen":11960,"erwä":11961,"erhit":11962,"ankommen":11963,"asch":11964,"outed":11965,"eingeführt":11966,"einfluss":11967,"teten":11968,"gebrauchen":11969,"geantwortet":11970,"bewe":11971,"belast":11972,"befahren":11973,"lehren":11974,"leichte":11975,"leidet":11976,"level":11977,"lebten":11978,"sequ":11979,"irk":11980,"dermäuse":11981,"denly":11982,"vergehen":11983,"verantwort":11984,"igter":11985,"kehren":11986,"weile":11987,"genügt":11988,"Theologie":11989,"losen":11990,"soap":11991,"sowohl":11992,"benannt":11993,"trav":11994,"aufgetan":11995,"hohes":11996,"entwen":11997,"entfachen":11998,"ierst":11999,"ierter":12000,"fever":12001,"feuch":12002,"aussuchen":12003,"Weisen":12004,"menge":12005,"zep":12006,"lace":12007,"ppchen":12008,"woche":12009,"Ess":12010,"ennten":12011,"oldest":12012,"willen":12013,"willig":12014,"Frö":12015,"Gewissen":12016,"Gewinn":12017,"odd":12018,"endio":12019,"Steinen":12020,"dawn":12021,"änomen":12022,"Ansehen":12023,"Anspruch":12024,"Anschließend":12025,"drücke":12026,"Innen":12027,"Lebe":12028,"himoto":12029,"örtern":12030,"exzentr":12031,"nachrichten":12032,"Beer":12033,"Beeth":12034,"Begrüß":12035,"tzt":12036,"compe":12037,"ihundert":12038,"Arch":12039,"Unwort":12040,"Unkraut":12041,"finder":12042,"halber":12043,"ündel":12044,"perlen":12045,"guessed":12046,"Wasch":12047,"mehrfach":12048,"heiter":12049,"unterbrochen":12050,"tungen":12051,"suicide":12052,"Teig":12053,"sprüfung":12054,"Spatzen":12055,"fühlen":12056,"blü":12057,"bluten":12058,"Feld":12059,"großem":12060,"Semester":12061,"breite":12062,"staring":12063,"startet":12064,"pared":12065,"Soziologie":12066,"Jahrhunderts":12067,"beständ":12068,"trem":12069,"treffe":12070,"Ausstrahlung":12071,"Straf":12072,"sprecher":12073,"Japanische":12074,"direct":12075,"findung":12076,"Presse":12077,"putzen":12078,"Aufgaben":12079,"reiches":12080,"turning":12081,"Monats":12082,"zurückzu":12083,"drew":12084,"drehen":12085,"schneiden":12086,"Berber":12087,"tomato":12088,"beschwer":12089,"bleibe":12090,"understands":12091,"teaches":12092,"chosen":12093,"weitergegeben":12094,"gehemmt":12095,"burg":12096,"Kosten":12097,"Zuhörer":12098,"irgendeinen":12099,"getanzt":12100,"sorgt":12101,"arbeitung":12102,"Jeden":12103,"legten":12104,"members":12105,"ivil":12106,"zerbrechlich":12107,"lefone":12108,"shows":12109,"ständigen":12110,"Christentum":12111,"heirate":12112,"daughters":12113,"Urs":12114,"Doesn":12115,"humans":12116,"erklärung":12117,"hüter":12118,"ingenieur":12119,"mählich":12120,"1860":12121,"rtum":12122,"Militär":12123,"harmon":12124,"someday":12125,"aufzustehen":12126,"aufzubrechen":12127,"stattfinden":12128,"appears":12129,"Romans":12130,"Hashimoto":12131,"Turk":12132,"portiert":12133,"Fleiß":12134,"Fledermäuse":12135,"verbrachte":12136,"küsste":12137,"kriegs":12138,"tierung":12139,"lopft":12140,"Himmels":12141,"Energien":12142,"Gehir":12143,"ology":12144,"Findest":12145,"amerikanischer":12146,"ministerium":12147,"Übersetzungen":12148,"suspic":12149,"screw":12150,"bildung":12151,"ördert":12152,"strafe":12153,"ativität":12154,"rechnen":12155,"Morde":12156,"schrecklichen":12157,"customers":12158,"Irrtum":12159,"meisterschaft":12160,"friedigend":12161,"nuts":12162,"Schmerzmittel":12163,"Veget":12164,"heilbar":12165,"rumors":12166,"Beispielsätze":12167,"Musch":12168,"mystery":12169,"praktischen":12170,"bilden":12171,"negativen":12172,"Schrecken":12173,"Dokumentation":12174,"Klopfen":12175,"Klassenkamer":12176,"Merkur":12177,"Laurie":12178,"großartig":12179,"Rettung":12180,"hoffte":12181,"Untersuchung":12182,"Tunnel":12183,"Letzter":12184,"Truppen":12185,"Gleichberecht":12186,"connection":12187,"Schlimmste":12188,"Birken":12189,"Wusstest":12190,"Handtuch":12191,"Figur":12192,"bewegungslos":12193,"elephant":12194,"technology":12195,"blonde":12196,"whispered":12197,"Reichtum":12198,"Junggese":12199,"gegenseitig":12200,"förm":12201,"dahintergekommen":12202,"diamond":12203,"Entdeck":12204,"offizielle":12205,"keinesfalls":12206,"acquain":12207,"Wahrscheinlichkeit":12208,"gefeuert":12209,"adventure":12210,"helicopter":12211,"Honig":12212,"Litauen":12213,"unbelievable":12214,"Kohlendio":12215,"Antworten":12216,"Döner":12217,"Kiefern":12218,"Suddenly":12219,"Terroristen":12220,"Usually":12221,"erhitzte":12222,"belastet":12223,"Beethoven":12224,"Kohlendioxid":12225,"Band":12226,"Back":12227,"Bauch":12228,"Del":12229,"Fün":12230,"Guck":12231,"Hard":12232,"Job":12233,"Nö":12234,"Narr":12235,"Ox":12236,"Oze":12237,"Pingu":12238,"Tank":12239,"Table":12240,"Talent":12241,"Whe":12242,"Waffen":12243,"Wörtern":12244,"athe":12245,"billion":12246,"bons":12247,"caus":12248,"eit":12249,"emer":12250,"fla":12251,"fic":12252,"fliegt":12253,"ives":12254,"kuchen":12255,"pfe":12256,"pul":12257,"rush":12258,"virus":12259,"env":12260,"ences":12261,"erre":12262,"ersetzen":12263,"erkennt":12264,"ched":12265,"stört":12266,"iser":12267,"rep":12268,"unlucky":12269,"toy":12270,"gewisse":12271,"geträumt":12272,"begibt":12273,"height":12274,"auto":12275,"augen":12276,"leger":12277,"ingsten":12278,"seuf":12279,"dele":12280,"alien":12281,"alike":12282,"zulegen":12283,"zufolge":12284,"verstarb":12285,"verfolgt":12286,"verhungern":12287,"meas":12288,"imt":12289,"weite":12290,"urteilt":12291,"amat":12292,"abgeschafft":12293,"loan":12294,"soci":12295,"sobald":12296,"ague":12297,"trifft":12298,"duften":12299,"warned":12300,"adm":12301,"adays":12302,"Erfindung":12303,"frühen":12304,"Schrank":12305,"motel":12306,"lande":12307,"fürs":12308,"fürchter":12309,"oline":12310,"überfüllt":12311,"Fris":12312,"Französ":12313,"Früchte":12314,"Gehe":12315,"grauen":12316,"seless":12317,"Annahme":12318,"dringen":12319,"shi":12320,"shouted":12321,"exce":12322,"Beat":12323,"ganer":12324,"proof":12325,"riesen":12326,"Zehn":12327,"sollt":12328,"ünscht":12329,"obile":12330,"plötz":12331,"gehend":12332,"hierbleiben":12333,"beseit":12334,"gefreut":12335,"ahne":12336,"schenkte":12337,"Alg":12338,"Alte":12339,"gewünscht":12340,"breit":12341,"stared":12342,"lovely":12343,"äuß":12344,"Mangel":12345,"kauften":12346,"wiederkommen":12347,"damaged":12348,"shock":12349,"langem":12350,"Praxis":12351,"Vornamen":12352,"Aufmerksam":12353,"Aufnahme":12354,"bereuen":12355,"smiling":12356,"raise":12357,"passte":12358,"maybe":12359,"Blatt":12360,"Having":12361,"moral":12362,"joined":12363,"Landes":12364,"Forget":12365,"öffne":12366,"öffentlich":12367,"Drive":12368,"tail":12369,"eleven":12370,"innerungen":12371,"difficulty":12372,"ützt":12373,"Kaffe":12374,"Klein":12375,"Flugzeuge":12376,"turns":12377,"engaged":12378,"Gedächtnis":12379,"capable":12380,"Parkstraße":12381,"jederzeit":12382,"Denmark":12383,"hinterlassen":12384,"liegenlassen":12385,"tragic":12386,"liebten":12387,"boxes":12388,"Müll":12389,"especially":12390,"utzend":12391,"Hoffentlich":12392,"worthwhile":12393,"Unfallort":12394,"Hütte":12395,"Rechnung":12396,"Italy":12397,"Möglichkeit":12398,"sinnig":12399,"appropri":12400,"sexy":12401,"Gründen":12402,"Kamin":12403,"Schnitt":12404,"Portugies":12405,"erwachte":12406,"Bedarf":12407,"continued":12408,"beeindruckt":12409,"Sicherheits":12410,"Veganer":12411,"gestrichen":12412,"Trinkgeld":12413,"sympath":12414,"Latein":12415,"Dürfte":12416,"Gastgeber":12417,"describe":12418,"geweckt":12419,"Götter":12420,"Scherze":12421,"foreigners":12422,"Mords":12423,"unzuverlässig":12424,"Disko":12425,"argument":12426,"Harvard":12427,"Pilze":12428,"Ingenieur":12429,"scheibe":12430,"predictable":12431,"unverzüglich":12432,"gelegentlich":12433,"recommend":12434,"throat":12435,"Diamanten":12436,"verlangte":12437,"fantastic":12438,"MP3":12439,"Alzheimer":12440,"Tragödie":12441,"Vegetar":12442,"Ozean":12443,"Whether":12444,"emergen":12445,"Aufmerksamkeit":12446,"!!":12447,"Ama":12448,"Curry":12449,"Füße":12450,"Fabr":12451,"Gute":12452,"Hold":12453,"Iss":12454,"King":12455,"Kennt":12456,"Lange":12457,"Lager":12458,"Old":12459,"Trot":12460,"Wil":12461,"Wisst":12462,"Yum":12463,"eigh":12464,"hun":12465,"keinem":12466,"knight":12467,"lü":12468,"lug":12469,"mud":12470,"nungs":12471,"oi":12472,"ote":12473,"ots":12474,"rass":12475,"rising":12476,"tür":12477,"tör":12478,"treibt":12479,"inke":12480,"anrief":12481,"attic":12482,"repor":12483,"gebraucht":12484,"bell":12485,"bester":12486,"bestellen":12487,"bedeut":12488,"leih":12489,"lemon":12490,"demo":12491,"depressed":12492,"haar":12493,"altete":12494,"zurecht":12495,"zubereitet":12496,"schnur":12497,"meter":12498,"offe":12499,"vegan":12500,"hrst":12501,"dasselbe":12502,"achie":12503,"nees":12504,"nemark":12505,"gender":12506,"amten":12507,"absur":12508,"aufgegangen":12509,"aufgabe":12510,"god":12511,"lichkeit":12512,"entsetz":12513,"ador":12514,"addic":12515,"female":12516,"manche":12517,"wol":12518,"gerieten":12519,"bricht":12520,"bride":12521,"brush":12522,"ftiger":12523,"überwiegend":12524,"Frise":12525,"prim":12526,"ifun":12527,"chest":12528,"Intell":12529,"share":12530,"Engel":12531,"Bezug":12532,"Bestimmt":12533,"Rechte":12534,"ientierung":12535,"earn":12536,"Zeichen":12537,"hingegen":12538,"plants":12539,"hattest":12540,"Einmal":12541,"quert":12542,"klagt":12543,"Zeitplan":12544,"wäscht":12545,"innerst":12546,"meinten":12547,"ruh":12548,"redung":12549,"angestellt":12550,"Feiert":12551,"para":12552,"Soon":12553,"wiedersehen":12554,"durchgelesen":12555,"Isra":12556,"backyard":12557,"Buchstab":12558,"Ausbildung":12559,"fäll":12560,"shore":12561,"shocked":12562,"Monaten":12563,"bereitete":12564,"estim":12565,"beschä":12566,"Menschenmenge":12567,"häss":12568,"Abenteuer":12569,"Blume":12570,"lette":12571,"Hosen":12572,"Roll":12573,"Rose":12574,"owns":12575,"Orientierung":12576,"mates":12577,"Stud":12578,"irgendwas":12579,"seitdem":12580,"Abschluss":12581,"classical":12582,"sentenced":12583,"Play":12584,"Plätze":12585,"importance":12586,"truly":12587,"regul":12588,"Tagebuch":12589,"Interessen":12590,"zeichneten":12591,"Fore":12592,"surprising":12593,"außerhalb":12594,"Lux":12595,"Benehmen":12596,"Taifun":12597,"ausgeliehen":12598,"warmes":12599,"evidence":12600,"fairy":12601,"eurem":12602,"böser":12603,"cups":12604,"humanity":12605,"translated":12606,"englisch":12607,"fürchtet":12608,"confusing":12609,"habits":12610,"Term":12611,"Geistern":12612,"Halloween":12613,"erneuer":12614,"preparing":12615,"drückte":12616,"entirely":12617,"strength":12618,"Erfahrungen":12619,"beeindrucken":12620,"jäh":12621,"hobby":12622,"höchst":12623,"bothering":12624,"Irgend":12625,"Sprichst":12626,"Sprichwort":12627,"Informationen":12628,"lächelt":12629,"liters":12630,"skiing":12631,"reagiert":12632,"Schwarzen":12633,"embarrass":12634,"bestätigen":12635,"developed":12636,"Astronom":12637,"Städte":12638,"Vielen":12639,"Statue":12640,"pretending":12641,"Klopapier":12642,"reißen":12643,"Queen":12644,"zitterte":12645,"incredible":12646,"pills":12647,"beherrschen":12648,"ignore":12649,"überlege":12650,"verhaftet":12651,"Dänemark":12652,"Paar":12653,"regelmäßig":12654,"eifersüchtig":12655,"abgelehnt":12656,"fröhlich":12657,"Schmetter":12658,"Verabredung":12659,"frightened":12660,"forbidden":12661,"suspect":12662,"Several":12663,"Optimist":12664,"härter":12665,"verantwortlich":12666,"suspicious":12667,"Klassenkameraden":12668,"emergency":12669,"Buchstabier":12670,"AT":12671,"Apo":12672,"Cath":12673,"Cats":12674,"Eat":12675,"Eim":12676,"Eli":12677,"Griechen":12678,"Hans":12679,"Hintern":12680,"Kie":12681,"Know":12682,"Kennen":12683,"Kilo":12684,"Mac":12685,"Mah":12686,"Mücken":12687,"Pfir":12688,"Renn":12689,"SS":12690,"Sy":12691,"Sing":12692,"Sol":12693,"Sagt":12694,"Tar":12695,"Vi":12696,"Wet":12697,"bachel":12698,"fy":12699,"file":12700,"fände":12701,"iod":12702,"imed":12703,"kicked":12704,"mi":12705,"nam":12706,"rin":12707,"rag":12708,"sne":12709,"tank":12710,"useless":12711,"öfter":12712,"erholen":12713,"erwider":12714,"ona":12715,"ony":12716,"eint":12717,"reput":12718,"tore":12719,"toll":12720,"tool":12721,"geplant":12722,"gebissen":12723,"bezauber":12724,"zuerst":12725,"versprechen":12726,"verkehr":12727,"vergleichen":12728,"genius":12729,"rope":12730,"urn":12731,"ams":12732,"doppe":12733,"undvierzig":12734,"loser":12735,"sore":12736,"agge":12737,"triffst":12738,"forgive":12739,"sichere":12740,"Erlaub":12741,"Erinnerst":12742,"auskommen":12743,"Schatz":12744,"hnchen":12745,"cance":12746,"wochen":12747,"übersetzt":12748,"prices":12749,"ops":12750,"inkalen":12751,"getreten":12752,"illegal":12753,"Verzei":12754,"assume":12755,"Instead":12756,"Leiter":12757,"Enkel":12758,"Endlich":12759,"Bevor":12760,"Reichen":12761,"provide":12762,"Ungar":12763,"rieche":12764,"ünde":12765,"kommenden":12766,"Einfach":12767,"hierzu":12768,"Gesetze":12769,"Freuden":12770,"springen":12771,"Botschaft":12772,"Spass":12773,"Spitze":12774,"tions":12775,"applau":12776,"Sollten":12777,"stones":12778,"scheiß":12779,"izing":12780,"Grunde":12781,"Three":12782,"shoot":12783,"Flö":12784,"Flitter":12785,"Flagge":12786,"finding":12787,"ziehung":12788,"Brüder":12789,"bringst":12790,"typho":12791,"disagree":12792,"Toilet":12793,"research":12794,"begun":12795,"beschütz":12796,"pflegte":12797,"viertel":12798,"buys":12799,"access":12800,"mord":12801,"Mitarbeiter":12802,"About":12803,"1980":12804,"Kontro":12805,"Kontakt":12806,"Pluton":12807,"Work":12808,"syste":12809,"Planet":12810,"blow":12811,"Explain":12812,"Follow":12813,"advance":12814,"wertvolle":12815,"windows":12816,"Kriminal":12817,"simply":12818,"schrauber":12819,"Sonnenblumen":12820,"Diesmal":12821,"recei":12822,"führten":12823,"Schneefalls":12824,"Liber":12825,"Angelegenheiten":12826,"attracted":12827,"übrigens":12828,"räum":12829,"trieben":12830,"Frühlings":12831,"Netzbrief":12832,"Berichts":12833,"deeply":12834,"haften":12835,"rupfen":12836,"verabschieden":12837,"ancen":12838,"Beschwerde":12839,"Great":12840,"consists":12841,"robber":12842,"automobile":12843,"Baseballspiel":12844,"stürzte":12845,"Hubschrauber":12846,"töten":12847,"Schwarz":12848,"Narren":12849,"concern":12850,"apparate":12851,"dragon":12852,"tastes":12853,"verspäten":12854,"Badezimmer":12855,"Redner":12856,"weapon":12857,"Märchen":12858,"roman":12859,"Verzeih":12860,"communic":12861,"grades":12862,"Teppich":12863,"data":12864,"Vernunft":12865,"mushrooms":12866,"unterscheidet":12867,"Urlaubs":12868,"Großbritannien":12869,"grabbed":12870,"Geburtstagsfeier":12871,"Galile":12872,"appropriate":12873,"Amaz":12874,"Trottel":12875,"Intelligen":12876,"Terminkalen":12877,"Pfirsich":12878,"erwiderte":12879,"doppelt":12880,"Erlaubnis":12881,"Verzeihen":12882,"Flitterwochen":12883,"Terminkalender":12884,"),":12885,"23":12886,"31":12887,"48":12888,"Adam":12889,"BI":12890,"Dich":12891,"Fieber":12892,"Hong":12893,"Little":12894,"Lärm":12895,"Mörder":12896,"Nage":12897,"Nation":12898,"Nick":12899,"Sack":12900,"Sleep":12901,"Sushi":12902,"Wes":12903,"Wale":12904,"Wüste":12905,"bound":12906,"bade":12907,"credit":12908,"eurer":12909,"hmt":12910,"käu":12911,"ktiv":12912,"lügen":12913,"mally":12914,"mischen":12915,"och":12916,"oon":12917,"phr":12918,"pup":12919,"pts":12920,"psycho":12921,"pushed":12922,"snor":12923,"ule":12924,"zet":12925,"zwan":12926,"stein":12927,"angeln":12928,"anlage":12929,"ießen":12930,"omed":12931,"asse":12932,"asion":12933,"aries":12934,"gefahr":12935,"gegrün":12936,"gehofft":12937,"bestellt":12938,"bemüh":12939,"austr":12940,"halle":12941,"zustimmen":12942,"zustande":12943,"schär":12944,"verlässt":12945,"verriet":12946,"vergeblich":12947,"hated":12948,"tery":12949,"terms":12950,"abgebrochen":12951,"undzwanzig":12952,"lien":12953,"benimmt":12954,"trade":12955,"spot":12956,"gossen":12957,"warn":12958,"entsprechen":12959,"added":12960,"ierer":12961,"ierend":12962,"steck":12963,"frist":12964,"ausleihen":12965,"Schreib":12966,"Schüsse":12967,"saf":12968,"mangelt":12969,"mosqu":12970,"lawn":12971,"liege":12972,"brakes":12973,"Stau":12974,"graus":12975,"chel":12976,"Andere":12977,"drüber":12978,"jewel":12979,"ateg":12980,"Bestes":12981,"Befehl":12982,"foc":12983,"contest":12984,"ikas":12985,"laschen":12986,"period":12987,"plate":12988,"mehrmals":12989,"Wieso":12990,"klingen":12991,"strike":12992,"wählt":12993,"wächst":12994,"unterschreiben":12995,"unterrichten":12996,"Gespenst":12997,"ruhen":12998,"Donner":12999,"Waren":13000,"barste":13001,"riot":13002,"konfron":13003,"rights":13004,"losion":13005,"fährst":13006,"roommate":13007,"Kinderspiel":13008,"Press":13009,"Prices":13010,"Aufzug":13011,"Braut":13012,"Trust":13013,"typical":13014,"downstairs":13015,"atzung":13016,"schneit":13017,"schneien":13018,"Too":13019,"weggehen":13020,"Französischlehrer":13021,"beschuld":13022,"Neither":13023,"Zimmergen":13024,"weitermachen":13025,"Schlam":13026,"compan":13027,"trock":13028,"hunger":13029,"stories":13030,"Platten":13031,"difficulties":13032,"Minute":13033,"italien":13034,"osaur":13035,"flexi":13036,"Grundstück":13037,"falschen":13038,"detective":13039,"Germans":13040,"zwingen":13041,"auszusehen":13042,"auszuschalten":13043,"druckt":13044,"schwierige":13045,"highest":13046,"tured":13047,"Phone":13048,"momentan":13049,"deutlich":13050,"erinnert":13051,"numbers":13052,"junger":13053,"Qualität":13054,"wohnst":13055,"bevorzu":13056,"differently":13057,"Genau":13058,"aufzuhören":13059,"schnitts":13060,"secretary":13061,"bereitung":13062,"worrying":13063,"cientist":13064,"Cola":13065,"Turkey":13066,"schätzten":13067,"zahlte":13068,"Durchschnitts":13069,"schüt":13070,"Verkehrs":13071,"Heimweg":13072,"heavily":13073,"Despite":13074,"Okay":13075,"Gehirn":13076,"organisation":13077,"Flugzeugabst":13078,"generation":13079,"Schachspieler":13080,"tätest":13081,"warteten":13082,"Schnecken":13083,"courageous":13084,"discussing":13085,"statement":13086,"Weihnachtsmann":13087,"rechnete":13088,"umgehend":13089,"suffers":13090,"deserve":13091,"statue":13092,"weinte":13093,"Butterbrot":13094,"claimed":13095,"Besucher":13096,"kurzem":13097,"Löffel":13098,"Samstag":13099,"hesit":13100,"Pope":13101,"sammelten":13102,"climbing":13103,"wealthy":13104,"rabbit":13105,"schmutzig":13106,"absorb":13107,"Koreanisch":13108,"potatoes":13109,"Idioten":13110,"thedral":13111,"konzentrieren":13112,"Überlegung":13113,"Sauerstoff":13114,"Another":13115,"Professor":13116,"Wofür":13117,"klüger":13118,"geschmissen":13119,"basement":13120,"arguing":13121,"Furcht":13122,"industr":13123,"Turkish":13124,"Wilson":13125,"eighteen":13126,"Plutonium":13127,"räumte":13128,"Intelligenz":13129,"bemühte":13130,"mosquito":13131,"konfrontiert":13132,"Flugzeugabsturz":13133,"65":13134,"90":13135,"AG":13136,"Batter":13137,"Cat":13138,"Dire":13139,"Ever":13140,"Easter":13141,"Fak":13142,"Ihn":13143,"Jan":13144,"Jour":13145,"Kätzchen":13146,"Lap":13147,"Long":13148,"Lande":13149,"Lüge":13150,"Länge":13151,"Nep":13152,"Op":13153,"Sach":13154,"Sum":13155,"Setz":13156,"Wow":13157,"Zivil":13158,"ape":13159,"faul":13160,"games":13161,"gym":13162,"mome":13163,"pin":13164,"pink":13165,"rand":13166,"ram":13167,"sla":13168,"scientist":13169,"uded":13170,"vari":13171,"wounds":13172,"ygen":13173,"ächte":13174,"erf":13175,"erfährt":13176,"infe":13177,"instruction":13178,"stoff":13179,"stamp":13180,"tha":13181,"thrown":13182,"assel":13183,"archen":13184,"online":13185,"Tomaten":13186,"regar":13187,"itude":13188,"tolle":13189,"topic":13190,"bewunder":13191,"bekleidet":13192,"aube":13193,"verletzte":13194,"verständnis":13195,"weht":13196,"terror":13197,"terrib":13198,"roses":13199,"amt":13200,"ambu":13201,"lid":13202,"Sieg":13203,"trump":13204,"aufgegeben":13205,"aufpassen":13206,"umarmen":13207,"formed":13208,"span":13209,"fewer":13210,"Erwar":13211,"steten":13212,"ausger":13213,"ausgehen":13214,"wirtschaft":13215,"sake":13216,"mantel":13217,"geschenk":13218,"Young":13219,"merkte":13220,"lazy":13221,"wieg":13222,"icient":13223,"yourselves":13224,"übernehmen":13225,"überlebt":13226,"Friend":13227,"Gewö":13228,"glas":13229,"Stie":13230,"gruppe":13231,"änk":13232,"Verrück":13233,"poet":13234,"coast":13235,"els":13236,"Team":13237,"Feder":13238,"gewalt":13239,"prepare":13240,"schlicht":13241,"cloud":13242,"nerves":13243,"Grüß":13244,"Nachdenken":13245,"mono":13246,"phoned":13247,"Brauch":13248,"Brunnen":13249,"dreizehn":13250,"pengu":13251,"Mechan":13252,"created":13253,"tags":13254,"weiteren":13255,"Elvis":13256,"2015":13257,"Zuhause":13258,"Willi":13259,"Jede":13260,"troops":13261,"storben":13262,"relativ":13263,"interessiere":13264,"learns":13265,"schlage":13266,"missbraucht":13267,"lebend":13268,"talent":13269,"fingen":13270,"Keller":13271,"forgets":13272,"Object":13273,"Falls":13274,"Kraft":13275,"kidding":13276,"curtain":13277,"pond":13278,"milit":13279,"snowing":13280,"Judy":13281,"käm":13282,"spends":13283,"spending":13284,"errö":13285,"cathedral":13286,"Selbstmord":13287,"appearance":13288,"Chemie":13289,"craw":13290,"subway":13291,"kret":13292,"überraschen":13293,"überraschte":13294,"complaining":13295,"verschwand":13296,"Flugzeugs":13297,"bills":13298,"Sonntags":13299,"vergiftet":13300,"recovery":13301,"berühmte":13302,"herrscht":13303,"carrying":13304,"guest":13305,"qualif":13306,"screamed":13307,"murderer":13308,"Anything":13309,"Schraube":13310,"Hokkaidō":13311,"schläfrig":13312,"behaupten":13313,"angenehmen":13314,"wanderten":13315,"nutzen":13316,"häufig":13317,"verbreitet":13318,"strawberries":13319,"Milli":13320,"ehrlicher":13321,"üblicherweise":13322,"particip":13323,"hübscheste":13324,"characters":13325,"occasion":13326,"journalist":13327,"faithful":13328,"füttern":13329,"honeymoon":13330,"ghosts":13331,"absorbed":13332,"approached":13333,"mächtiger":13334,"grenzt":13335,"annehm":13336,"starrte":13337,"explod":13338,"euros":13339,"relatively":13340,"scratch":13341,"astrophe":13342,"Actually":13343,"Oliver":13344,"geschnitten":13345,"magazine":13346,"Choose":13347,"candidate":13348,"Thail":13349,"Watson":13350,"Israel":13351,"hässlich":13352,"Wetters":13353,"Kontrolle":13354,"receipt":13355,"zettel":13356,"gegründet":13357,"Schlamassel":13358,"instructions":13359,"regarded":13360,"terribly":13361,"ambulance":13362,"3000":13363,"76":13364,"Banken":13365,"Ga":13366,"Iran":13367,"Jak":13368,"Knie":13369,"Kath":13370,"Mur":13371,"NA":13372,"Pes":13373,"Sex":13374,"Tim":13375,"Türe":13376,"Virus":13377,"Wunde":13378,"Zuer":13379,"bung":13380,"bone":13381,"bage":13382,"ceremon":13383,"ec":13384,"ew":13385,"eil":13386,"hu":13387,"hire":13388,"iders":13389,"kal":13390,"lus":13391,"lügt":13392,"nein":13393,"pir":13394,"pige":13395,"polar":13396,"szahl":13397,"virt":13398,"ziel":13399,"émon":13400,"erster":13401,"erlebt":13402,"sting":13403,"anat":13404,"associ":13405,"eintreffen":13406,"llner":13407,"unfair":13408,"theon":13409,"belt":13410,"behalte":13411,"heals":13412,"auß":13413,"depart":13414,"istol":13415,"aliens":13416,"scharf":13417,"versehen":13418,"vergleich":13419,"versal":13420,"velo":13421,"wetter":13422,"weiger":13423,"nedy":13424,"abholen":13425,"umsonst":13426,"spill":13427,"goat":13428,"fehlte":13429,"Erden":13430,"frische":13431,"Schwä":13432,"mankind":13433,"manager":13434,"gesper":13435,"ladies":13436,"wovon":13437,"bras":13438,"brennt":13439,"Geister":13440,"Gewerk":13441,"inkte":13442,"vorm":13443,"ifer":13444,"änglich":13445,"Vermut":13446,"drein":13447,"jeans":13448,"acts":13449,"exchange":13450,"Bege":13451,"ulary":13452,"ided":13453,"comment":13454,"composed":13455,"Until":13456,"Außen":13457,"malerweise":13458,"conten":13459,"conven":13460,"construction":13461,"serve":13462,"klub":13463,"Wovon":13464,"Wohl":13465,"Freedom":13466,"Boot":13467,"appt":13468,"Albert":13469,"Feig":13470,"Sekret":13471,"gewal":13472,"starben":13473,"Joan":13474,"bisher":13475,"vocab":13476,"bucket":13477,"loszu":13478,"bestür":13479,"fuß":13480,"monkey":13481,"ächtige":13482,"Vortrag":13483,"phil":13484,"Traffic":13485,"schafts":13486,"iped":13487,"zurückgekommen":13488,"disgust":13489,"undeten":13490,"wegwerfen":13491,"rail":13492,"ungsformular":13493,"Postam":13494,"passierte":13495,"beschreiben":13496,"schwöre":13497,"vierten":13498,"Unterhaltung":13499,"singers":13500,"attitude":13501,"chose":13502,"interests":13503,"joys":13504,"Kommst":13505,"cracy":13506,"bettel":13507,"zerbrochen":13508,"198":13509,"Konzer":13510,"älteste":13511,"tale":13512,"lebendig":13513,"betrachtet":13514,"Atl":13515,"rotes":13516,"Großteil":13517,"rasch":13518,"letztens":13519,"getrennt":13520,"battery":13521,"jenigen":13522,"freundschaft":13523,"ilien":13524,"punish":13525,"politischen":13526,"bekannter":13527,"Students":13528,"Lebensmittel":13529,"costs":13530,"arbeiteten":13531,"Speise":13532,"Colle":13533,"riesigen":13534,"Laster":13535,"zufriedenen":13536,"Ärzt":13537,"Half":13538,"Jahreszeit":13539,"distur":13540,"complained":13541,"Kennedy":13542,"zelten":13543,"ladder":13544,"villagers":13545,"limited":13546,"wettet":13547,"ängstlich":13548,"Scheiß":13549,"sinnvoll":13550,"Normalerweise":13551,"enthalten":13552,"besitzen":13553,"Schachtel":13554,"erkäl":13555,"positive":13556,"quality":13557,"Anyone":13558,"graph":13559,"Dienst":13560,"leads":13561,"Zauberer":13562,"Adler":13563,"Goodbye":13564,"Klimaanlage":13565,"Mittelpunkt":13566,"gestritten":13567,"Trinken":13568,"Löwe":13569,"anziehen":13570,"ehrgeiz":13571,"Farmer":13572,"päck":13573,"searched":13574,"aussehend":13575,"winning":13576,"Yoga":13577,"süßen":13578,"mittelt":13579,"Studentin":13580,"kinder":13581,"released":13582,"Webseite":13583,"grüne":13584,"eremonie":13585,"circum":13586,"source":13587,"February":13588,"Kandidat":13589,"furchtbar":13590,"Hitler":13591,"kompetenz":13592,"Vorstellungs":13593,"Atlantic":13594,"Ewigkeit":13595,"atomic":13596,"Spiegel":13597,"talented":13598,"Reservier":13599,"miracle":13600,"volunteer":13601,"various":13602,"weitem":13603,"töricht":13604,"embarrassing":13605,"bachelor":13606,"typhoon":13607,"systems":13608,"pupils":13609,"Batterie":13610,"Laptop":13611,"mometer":13612,"erfunden":13613,"Verrückter":13614,"überraschend":13615,"Pesos":13616,"Zuerst":13617,"ceremony":13618,"Vermutung":13619,"Sekretär":13620,"vocabulary":13621,"Postamt":13622,"26":13623,"Af":13624,"Bing":13625,"Bri":13626,"Being":13627,"Dur":13628,"Drei":13629,"EA":13630,"Eben":13631,"Eigen":13632,"Fuck":13633,"Fett":13634,"Fliegen":13635,"FBI":13636,"Gan":13637,"Hope":13638,"Jor":13639,"Jump":13640,"Jones":13641,"Kes":13642,"Mat":13643,"Mad":13644,"Null":13645,"PC":13646,"Pau":13647,"Polen":13648,"Panda":13649,"Swe":13650,"Save":13651,"Ted":13652,"Wik":13653,"Zä":13654,"baden":13655,"bären":13656,"cet":13657,"cine":13658,"citi":13659,"dicht":13660,"emotion":13661,"fund":13662,"fass":13663,"gay":13664,"gänge":13665,"iös":13666,"iPhone":13667,"ki":13668,"kol":13669,"kts":13670,"knees":13671,"laus":13672,"mall":13673,"mare":13674,"mice":13675,"nom":13676,"nast":13677,"nirgendwo":13678,"nennst":13679,"pig":13680,"phin":13681,"papier":13682,"rennen":13683,"vic":13684,"vase":13685,"ziger":13686,"envelo":13687,"erl":13688,"erchen":13689,"ergeben":13690,"chungen":13691,"infl":13692,"stain":13693,"anke":13694,"angst":13695,"anfassen":13696,"ashed":13697,"atis":13698,"onna":13699,"esday":13700,"rely":13701,"unsicher":13702,"toes":13703,"gedruckt":13704,"beziehen":13705,"beträgt":13706,"orp":13707,"iriel":13708,"sches":13709,"schatz":13710,"vere":13711,"verwand":13712,"verachtet":13713,"verlangt":13714,"iglich":13715,"achtz":13716,"neter":13717,"tenpapier":13718,"uries":13719,"wil":13720,"Theo":13721,"soweit":13722,"sozial":13723,"usses":13724,"splan":13725,"lichkeiten":13726,"entstehen":13727,"ausreichend":13728,"Schlangen":13729,"hero":13730,"gespart":13731,"geringe":13732,"geringer":13733,"brille":13734,"essimist":13735,"enny":13736,"Gebiet":13737,"hlight":13738,"komm":13739,"cheaper":13740,"Verlassen":13741,"Verzweif":13742,"Inhalt":13743,"bled":13744,"Lei":13745,"pockets":13746,"Real":13747,"Revolution":13748,"fox":13749,"hinweg":13750,"ikt":13751,"iking":13752,"coins":13753,"gucken":13754,"reads":13755,"mehreren":13756,"besaß":13757,"besessen":13758,"Zeitungen":13759,"helfe":13760,"spezial":13761,"pleite":13762,"Box":13763,"ansas":13764,"angebr":13765,"bstahl":13766,"Proto":13767,"players":13768,"äusche":13769,"durchs":13770,"Griff":13771,"bedrohte":13772,"rooms":13773,"diplomat":13774,"minim":13775,"minded":13776,"Schuh":13777,"reichste":13778,"Freundinnen":13779,"Trang":13780,"Tradition":13781,"bereich":13782,"rescu":13783,"gleichzeitig":13784,"Berge":13785,"begonnen":13786,"einfaches":13787,"schwimmt":13788,"crew":13789,"Blind":13790,"Hafen":13791,"decor":13792,"decent":13793,"singt":13794,"balloon":13795,"airplane":13796,"lesson":13797,"danced":13798,"rainy":13799,"Wortschatz":13800,"kurzen":13801,"possibly":13802,"gereist":13803,"zeugung":13804,"wünscht":13805,"Schweigen":13806,"thirsty":13807,"eigener":13808,"osite":13809,"Kellner":13810,"kennenlernen":13811,"scen":13812,"accidentally":13813,"Shi":13814,"curry":13815,"Luc":13816,"Satzes":13817,"July":13818,"dreaming":13819,"aktuelle":13820,"babysitter":13821,"wohnte":13822,"schließt":13823,"Bergste":13824,"cleared":13825,"Lebensunterhalt":13826,"charged":13827,"spoon":13828,"Nowadays":13829,"gemeint":13830,"Gebühr":13831,"fools":13832,"mainly":13833,"verbrannt":13834,"Apple":13835,"hilfe":13836,"changing":13837,"Russisch":13838,"Canadians":13839,"Entschuldige":13840,"Kreu":13841,"Still":13842,"complaint":13843,"billig":13844,"hundreds":13845,"linken":13846,"attrak":13847,"servative":13848,"Pfund":13849,"berühm":13850,"täglich":13851,"normalerweise":13852,"holidays":13853,"products":13854,"basketball":13855,"affection":13856,"grapes":13857,"cops":13858,"erkannt":13859,"poisoned":13860,"opposite":13861,"beeil":13862,"rechner":13863,"verabschie":13864,"sticks":13865,"loudly":13866,"Doktor":13867,"Ansichten":13868,"Erdbeeren":13869,"Schließe":13870,"braune":13871,"crossing":13872,"annoyed":13873,"invention":13874,"messages":13875,"beruh":13876,"Schreien":13877,"dustrie":13878,"überprüft":13879,"ilianer":13880,"Arabic":13881,"Münzen":13882,"schmutziger":13883,"übernachten":13884,"Vertrau":13885,"Alibi":13886,"frühstücken":13887,"Februar":13888,"Tausen":13889,"investig":13890,"Halsket":13891,"dumb":13892,"finanziellen":13893,"beschädigt":13894,"increasing":13895,"Color":13896,"Datei":13897,"Langsam":13898,"Brasilianer":13899,"kleidete":13900,"optimistic":13901,"iPad":13902,"Lojban":13903,"sätzlich":13904,"desperate":13905,"Bestätigung":13906,"Entfernung":13907,"nutzlos":13908,"Eintritts":13909,"studiere":13910,"concentrate":13911,"replied":13912,"exception":13913,"luggage":13914,"Toilettenpapier":13915,"Nickerchen":13916,"austral":13917,"Fakten":13918,"virtue":13919,"gesperrt":13920,"ipedia":13921,"College":13922,"Ärztin":13923,"Wikipedia":13924,"cinema":13925,"citizen":13926,"envelope":13927,"verwandt":13928,"Verzweiflung":13929,"89":13930,"Bin":13931,"Bal":13932,"Balk":13933,"Class":13934,"Calm":13935,"Dian":13936,"Fix":13937,"Gren":13938,"Girl":13939,"Glä":13940,"Gerecht":13941,"Kal":13942,"Kame":13943,"Luck":13944,"LAN":13945,"Muse":13946,"Oo":13947,"Ostern":13948,"Pfe":13949,"Pers":13950,"Ruck":13951,"San":13952,"Tel":13953,"Talk":13954,"Tauben":13955,"Tüte":13956,"Täuschung":13957,"Ware":13958,"Yoko":13959,"Zw":13960,"Zen":13961,"aiss":13962,"bass":13963,"cul":13964,"dach":13965,"dded":13966,"ewi":13967,"eag":13968,"gal":13969,"gste":13970,"hi":13971,"hänge":13972,"ior":13973,"lament":13974,"mier":13975,"mix":13976,"nisch":13977,"null":13978,"narrow":13979,"olic":13980,"pistol":13981,"rese":13982,"sin":13983,"sir":13984,"slam":13985,"tires":13986,"umed":13987,"ußer":13988,"ypt":13989,"Äußer":13990,"Öster":13991,"erhe":13992,"erho":13993,"erscheint":13994,"erkennen":13995,"ercise":13996,"challen":13997,"infin":13998,"intended":13999,"stro":14000,"stier":14001,"stalt":14002,"anf":14003,"ankommt":14004,"thy":14005,"arten":14006,"ared":14007,"isierte":14008,"tex":14009,"teor":14010,"Tomorrow":14011,"reis":14012,"unklar":14013,"uncomfortable":14014,"gek":14015,"geladen":14016,"beleid":14017,"leon":14018,"leun":14019,"leeren":14020,"degre":14021,"alibi":14022,"schmel":14023,"verrie":14024,"verpassen":14025,"ofen":14026,"welle":14027,"weiten":14028,"weeds":14029,"roit":14030,"rode":14031,"rots":14032,"amkeit":14033,"doppel":14034,"utig":14035,"Theorie":14036,"lover":14037,"lotter":14038,"lockt":14039,"ussed":14040,"aggress":14041,"traue":14042,"aufgemacht":14043,"sensi":14044,"uments":14045,"spitze":14046,"gods":14047,"host":14048,"berufen":14049,"steigt":14050,"steuer":14051,"mitkommen":14052,"frischer":14053,"ausgegeben":14054,"Schutz":14055,"Schmid":14056,"saßen":14057,"wogen":14058,"willkommen":14059,"aktiz":14060,"fahrt":14061,"pest":14062,"mahl":14063,"Anblick":14064,"drängt":14065,"shaus":14066,"Leiche":14067,"jected":14068,"Beg":14069,"Belast":14070,"Begle":14071,"Bemerkungen":14072,"Rechen":14073,"idest":14074,"Doing":14075,"shed":14076,"sheit":14077,"Armut":14078,"artig":14079,"confer":14080,"hinüber":14081,"guts":14082,"wurdest":14083,"pler":14084,"sons":14085,"ssuche":14086,"geflogen":14087,"würfe":14088,"Wozu":14089,"unterbrechen":14090,"untersucht":14091,"renov":14092,"Fred":14093,"ruined":14094,"deta":14095,"hastig":14096,"wissheit":14097,"bler":14098,"bling":14099,"blutet":14100,"ileg":14101,"brew":14102,"breast":14103,"insgesam":14104,"precious":14105,"Soviet":14106,"Prophe":14107,"ripe":14108,"rippe":14109,"Jahrzehn":14110,"bedauer":14111,"frequ":14112,"Flucht":14113,"Flamme":14114,"koll":14115,"Schublade":14116,"plains":14117,"nightmare":14118,"zurückkommen":14119,"zurückgegeben":14120,"empor":14121,"ließe":14122,"counts":14123,"Autofahren":14124,"Autobahn":14125,"beschwert":14126,"Geschichten":14127,"Geschäfte":14128,"schwindet":14129,"Meteor":14130,"create":14131,"Parlament":14132,"schönsten":14133,"airo":14134,"Malays":14135,"burning":14136,"sichtbaren":14137,"Mitleid":14138,"streben":14139,"cris":14140,"cruel":14141,"Studie":14142,"personally":14143,"otten":14144,"Jedem":14145,"classes":14146,"knit":14147,"stores":14148,"nächster":14149,"Drücken":14150,"Besitzer":14151,"schlaf":14152,"misunderstood":14153,"tape":14154,"...\"":14155,"Woran":14156,"horiz":14157,"krä":14158,"Peru":14159,"trugen":14160,"ava":14161,"supplies":14162,"Regenbogen":14163,"Gedanke":14164,"leader":14165,"corre":14166,"jene":14167,"maschine":14168,"spätestens":14169,"jungle":14170,"Quar":14171,"sweets":14172,"Wagens":14173,"vidu":14174,"First":14175,"melden":14176,"passende":14177,"widerspricht":14178,"Küchen":14179,"silver":14180,"Weißwein":14181,"verbrachten":14182,"züge":14183,"bottom":14184,"küssten":14185,"kostenlos":14186,"wärst":14187,"Bisher":14188,"Helden":14189,"Buy":14190,"Babysitter":14191,"Freizeit":14192,"2003":14193,"Pfad":14194,"programme":14195,"Fortschritt":14196,"stärk":14197,"Mehrere":14198,"kleinste":14199,"tragedy":14200,"satisfactory":14201,"contribute":14202,"Serv":14203,"bananas":14204,"spannend":14205,"keinerlei":14206,"Moral":14207,"Dreieck":14208,"verwirr":14209,"jähr":14210,"Säuge":14211,"quietly":14212,"telefonieren":14213,"robbed":14214,"geschoben":14215,"Bundesstaat":14216,"divorce":14217,"laufe":14218,"verknü":14219,"described":14220,"Privileg":14221,"Horiz":14222,"Individu":14223,"domin":14224,"verwandelt":14225,"enormen":14226,"reservation":14227,"Renaiss":14228,"schmug":14229,"Rettungs":14230,"klingelte":14231,"gekocht":14232,"feiern":14233,"Schädel":14234,"stances":14235,"frühstückt":14236,"Kartoffeln":14237,"Kandidaten":14238,"chimney":14239,"screaming":14240,"Philip":14241,"Philipp":14242,"tourist":14243,"Nahrungsmittel":14244,"shaved":14245,"ermaßen":14246,"Polizeibeamte":14247,"effizien":14248,"Pokémon":14249,"vitamin":14250,"latein":14251,"erschienen":14252,"vertiefen":14253,"bedeutend":14254,"kleidung":14255,"Blood":14256,"Ereignis":14257,"Middle":14258,"pronoun":14259,"Dichter":14260,"Hobby":14261,"wolltet":14262,"begrüßt":14263,"Demokratie":14264,"regularly":14265,"nchron":14266,"beseitigt":14267,"äußert":14268,"democracy":14269,"estimate":14270,"reputation":14271,"Summe":14272,"versehentlich":14273,"Jordan":14274,"Balkon":14275,"Gläser":14276,"Gerechtigkeit":14277,"Teleskop":14278,"ewige":14279,"degrees":14280,"lottery":14281,"Schmidt":14282,"insgesamt":14283,"Malaysia":14284,"Renaissance":14285,"Bö":14286,"Bio":14287,"Binde":14288,"Dia":14289,"Denn":14290,"Damen":14291,"Echo":14292,"Flo":14293,"Free":14294,"Falle":14295,"Förder":14296,"Fassung":14297,"Jä":14298,"Jong":14299,"Klo":14300,"Lar":14301,"Lese":14302,"Lunge":14303,"Lava":14304,"Mand":14305,"Messe":14306,"Napo":14307,"Oder":14308,"Oase":14309,"Piano":14310,"Rein":14311,"Ring":14312,"Sich":14313,"Sue":14314,"Thr":14315,"Use":14316,"Vase":14317,"Wien":14318,"Wäl":14319,"WLAN":14320,"Zigar":14321,"adet":14322,"bbe":14323,"bake":14324,"blicken":14325,"eager":14326,"fans":14327,"figer":14328,"gur":14329,"gung":14330,"hom":14331,"kund":14332,"kod":14333,"kasten":14334,"klicken":14335,"lter":14336,"luss":14337,"lüge":14338,"mme":14339,"messer":14340,"mischt":14341,"ox":14342,"plast":14343,"rigen":14344,"raucher":14345,"sart":14346,"sip":14347,"scare":14348,"sähe":14349,"tland":14350,"uhr":14351,"wave":14352,"yram":14353,"zia":14354,"öl":14355,"ößen":14356,"erlich":14357,"erfuhr":14358,"chin":14359,"stände":14360,"anlagen":14361,"anstren":14362,"ieb":14363,"iell":14364,"atmete":14365,"einladen":14366,"reiste":14367,"unke":14368,"toward":14369,"towards":14370,"gestehen":14371,"geäußert":14372,"leitet":14373,"leckt":14374,"seu":14375,"sech":14376,"dependent":14377,"ichtbar":14378,"schlie":14379,"dennoch":14380,"versetzt":14381,"verirrt":14382,"mem":14383,"igstens":14384,"kelt":14385,"abnehmen":14386,"dose":14387,"dopp":14388,"utzer":14389,"loaded":14390,"sogen":14391,"sodass":14392,"trinke":14393,"auffeur":14394,"aufgestanden":14395,"sendet":14396,"umzubringen":14397,"former":14398,"spiders":14399,"henfolge":14400,"ürte":14401,"ady":14402,"Erlernen":14403,"steps":14404,"mitbekommen":14405,"ausgaben":14406,"ausgelegt":14407,"ausgesetzt":14408,"ausgebildet":14409,"Schafe":14410,"werts":14411,"werker":14412,"menschen":14413,"wog":14414,"wolf":14415,"brut":14416,"lanz":14417,"enna":14418,"überschre":14419,"Geis":14420,"Gehör":14421,"Gebraucht":14422,"pride":14423,"prüfte":14424,"praktiz":14425,"opfer":14426,"ending":14427,"hasste":14428,"inken":14429,"faden":14430,"fastest":14431,"Stör":14432,"Statt":14433,"pelle":14434,"vorzu":14435,"vorteil":14436,"dafr":14437,"änner":14438,"Ann":14439,"Anerkenn":14440,"Veran":14441,"Verstehen":14442,"Verhand":14443,"ätigkeit":14444,"desp":14445,"drauf":14446,"Inner":14447,"shirts":14448,"Leg":14449,"Lead":14450,"accompany":14451,"Endes":14452,"Bekann":14453,"Beob":14454,"Behör":14455,"Beeren":14456,"Betrag":14457,"Beweis":14458,"Bemüh":14459,"Arte":14460,"proved":14461,"Zeigen":14462,"sergebnis":14463,"finition":14464,"ündet":14465,"Einheit":14466,"gelacht":14467,"ssystem":14468,"beside":14469,"besetz":14470,"strand":14471,"stress":14472,"suchten":14473,"gefärbt":14474,"wäl":14475,"inna":14476,"Woll":14477,"unterzeichnet":14478,"unterschätzt":14479,"iertes":14480,"Freud":14481,"Teen":14482,"Teich":14483,"Boys":14484,"Spen":14485,"blauch":14486,"blätter":14487,"Alten":14488,"ktro":14489,"Sekunde":14490,"gewahr":14491,"Herren":14492,"starten":14493,"parcel":14494,"partei":14495,"bisweil":14496,"homeless":14497,"bark":14498,"Sollen":14499,"flach":14500,"wiederholt":14501,"aftaten":14502,"allesamt":14503,"Ausgang":14504,"Strö":14505,"Straftaten":14506,"gebenheiten":14507,"garan":14508,"Schubert":14509,"Pron":14510,"Decken":14511,"Dekor":14512,"Definition":14513,"Vorschriften":14514,"wherever":14515,"Brennst":14516,"bered":14517,"berei":14518,"bereue":14519,"setzung":14520,"wahrlich":14521,"netfeld":14522,"smallest":14523,"ühle":14524,"wirkliches":14525,"besseren":14526,"careless":14527,"erstaunt":14528,"erstattung":14529,"Poly":14530,"Poesie":14531,"beschleun":14532,"Allein":14533,"sicherzustellen":14534,"Geschwindigkeit":14535,"Geschmack":14536,"holten":14537,"delighted":14538,"schwul":14539,"Nehmt":14540,"häus":14541,"Hai":14542,"flog":14543,"Roger":14544,"Modu":14545,"lediglich":14546,"Sonst":14547,"schuh":14548,"Elisa":14549,"beings":14550,"Kommt":14551,"Fahrrä":14552,"beautifully":14553,"Koal":14554,"Abschnitt":14555,"classmates":14556,"Wortes":14557,"Katrin":14558,"kurs":14559,"trains":14560,"zero":14561,"Mais":14562,"Maje":14563,"Music":14564,"misst":14565,"verläuft":14566,"betroffen":14567,"answering":14568,"Perlen":14569,"heimlich":14570,"orders":14571,"destination":14572,"zeiung":14573,"supper":14574,"Ammon":14575,"Christian":14576,"detektor":14577,"Spiels":14578,"liebend":14579,"smaller":14580,"Interess":14581,"festgenommen":14582,"Nichtraucher":14583,"Premier":14584,"auszugleichen":14585,"Kanal":14586,"erzähl":14587,"Zweck":14588,"Schuljahr":14589,"unkten":14590,"dresses":14591,"biete":14592,"wenigsten":14593,"freundlichen":14594,"aktual":14595,"Emi":14596,"früheren":14597,"collected":14598,"fairly":14599,"utzung":14600,"furt":14601,"Computers":14602,"Lieblingsfarbe":14603,"wunderbare":14604,"ktions":14605,"injuries":14606,"Fleck":14607,"züg":14608,"verbunden":14609,"packung":14610,"suitable":14611,"distr":14612,"Frankfurt":14613,"Erdgeschoss":14614,"hinzuzufügen":14615,"translations":14616,"Like":14617,"Linie":14618,"nämlich":14619,"necessarily":14620,"entdecken":14621,"abzugeben":14622,"natürlichen":14623,"natürlicher":14624,"Würdest":14625,"generous":14626,"Scheidung":14627,"seltsame":14628,"interessanteste":14629,"Prinzipien":14630,"folgenden":14631,"fehlende":14632,"novels":14633,"eignet":14634,"Knoblauch":14635,"stärken":14636,"Dorfes":14637,"murdered":14638,"deliver":14639,"education":14640,"Wenigstens":14641,"Magnetfeld":14642,"definieren":14643,"ironment":14644,"Reihenfolge":14645,"ruption":14646,"erkannten":14647,"crops":14648,"tanzt":14649,"reserved":14650,"stimmung":14651,"splant":14652,"splitter":14653,"gewähr":14654,"schützt":14655,"internationale":14656,"Dienstag":14657,"vollem":14658,"Aktiv":14659,"Punkte":14660,"korrekt":14661,"Beschluss":14662,"Greta":14663,"ärgerlich":14664,"Berufs":14665,"weint":14666,"Egypt":14667,"rüstung":14668,"verschiedenen":14669,"Laufe":14670,"balken":14671,"Empire":14672,"Empfehl":14673,"häufiger":14674,"verbreiten":14675,"Schwimmbad":14676,"Kommentar":14677,"wirkungs":14678,"kamera":14679,"Guess":14680,"Mahlzeit":14681,"reagieren":14682,"Detroit":14683,"Haltestelle":14684,"tödlich":14685,"Klarheit":14686,"niedrig":14687,"niedriger":14688,"development":14689,"heutigen":14690,"Werkstatt":14691,"Wurst":14692,"motiviert":14693,"Buddhist":14694,"Religionen":14695,"Tatsachen":14696,"Wettkampf":14697,"incredibly":14698,"bemühen":14699,"klassische":14700,"Greek":14701,"Nächte":14702,"Uranus":14703,"Pilz":14704,"sonnig":14705,"scheiben":14706,"verletzung":14707,"circus":14708,"chinesischen":14709,"golden":14710,"goldenen":14711,"grenzen":14712,"Schlechte":14713,"suffered":14714,"electricity":14715,"stinkt":14716,"geistigen":14717,"celebrate":14718,"Touristen":14719,"Ägypten":14720,"intelle":14721,"toleranz":14722,"entzündung":14723,"Verdacht":14724,"fertigt":14725,"Fähigkeit":14726,"Fähigkeiten":14727,"Contin":14728,"lächerlich":14729,"Konkurrenten":14730,"gunshot":14731,"heaven":14732,"Doctors":14733,"unterstützt":14734,"Mäus":14735,"cigarette":14736,"arriving":14737,"George":14738,"ernähren":14739,"bleeding":14740,"Briefmarken":14741,"verteidigung":14742,"klappt":14743,"gentleman":14744,"Basketball":14745,"dünn":14746,"Argumente":14747,"Bleib":14748,"Kolonie":14749,"köpf":14750,"Enttäusche":14751,"Aufenthalt":14752,"Gärt":14753,"Language":14754,"säule":14755,"ulieren":14756,"Verhältnis":14757,"potenzie":14758,"Herausforder":14759,"drowning":14760,"Stipendium":14761,"Römer":14762,"competent":14763,"heiratete":14764,"Kaffees":14765,"hesitate":14766,"industry":14767,"Sachver":14768,"spanischen":14769,"military":14770,"qualifiziert":14771,"Gabel":14772,"NASA":14773,"circumstances":14774,"Kessel":14775,"erlitt":14776,"orpion":14777,"Tausende":14778,"Diana":14779,"resem":14780,"erhoben":14781,"Prophezeiung":14782,"Horizont":14783,"Napoleon":14784,"Wälder":14785,"Gebrauchtwagen":14786,"Inneren":14787,"Bemühungen":14788,"bisweilen":14789,"Premierminister":14790,"!«":14791,"(„":14792,"64":14793,"Ages":14794,"Aster":14795,"Axt":14796,"Aoi":14797,"Bündel":14798,"Cha":14799,"Cav":14800,"Dü":14801,"Droh":14802,"Ep":14803,"Ehr":14804,"Ehren":14805,"Esche":14806,"Eichen":14807,"Ebbe":14808,"Futter":14809,"Finnen":14810,"Fars":14811,"Finde":14812,"Fassen":14813,"Fahnen":14814,"Gip":14815,"Gumm":14816,"Glanz":14817,"Hay":14818,"Hän":14819,"Här":14820,"Haken":14821,"IN":14822,"Igel":14823,"Jammer":14824,"Kran":14825,"Knö":14826,"Küssen":14827,"Kairo":14828,"Light":14829,"Lud":14830,"Laufen":14831,"Laken":14832,"Lama":14833,"Mum":14834,"Morgan":14835,"Nör":14836,"Och":14837,"Other":14838,"Psy":14839,"Pille":14840,"Passt":14841,"Pseu":14842,"Punkten":14843,"Rate":14844,"Rassist":14845,"Sö":14846,"Sow":14847,"Siz":14848,"Saur":14849,"Sys":14850,"Suchen":14851,"Süße":14852,"Sätzen":14853,"Satell":14854,"Thy":14855,"Takatukal":14856,"Unachts":14857,"Wach":14858,"Wake":14859,"Wange":14860,"Weinf":14861,"Wespe":14862,"Wöl":14863,"Year":14864,"Zungen":14865,"Zerst":14866,"Zune":14867,"Züge":14868,"Zahlen":14869,"Zimt":14870,"aim":14871,"biß":14872,"bzeiten":14873,"cord":14874,"dischen":14875,"dlichen":14876,"fst":14877,"gten":14878,"gro":14879,"gast":14880,"grei":14881,"gängig":14882,"hten":14883,"hld":14884,"husten":14885,"izt":14886,"jow":14887,"juck":14888,"jetz":14889,"kich":14890,"kong":14891,"kanz":14892,"kilo":14893,"klage":14894,"ktik":14895,"mul":14896,"mär":14897,"münd":14898,"mörder":14899,"mmeln":14900,"mächtige":14901,"nannten":14902,"osen":14903,"ovier":14904,"pein":14905,"picht":14906,"pflicht":14907,"rauben":14908,"suns":14909,"shalber":14910,"tanz":14911,"uung":14912,"uzen":14913,"via":14914,"vant":14915,"waffen":14916,"wundet":14917,"wjet":14918,"xik":14919,"zgehalt":14920,"Än":14921,"Äqu":14922,"äte":14923,"ébec":14924,"öger":14925,"üllen":14926,"ühlen":14927,"ütige":14928,"ōto":14929,"ūsh":14930,"“)":14931,"enge":14932,"enjoys":14933,"erbo":14934,"ergr":14935,"erstellen":14936,"erfinden":14937,"erinner":14938,"erforder":14939,"erwär":14940,"erwiesen":14941,"errichtet":14942,"erichtet":14943,"erpicht":14944,"chnete":14945,"ineinander":14946,"indest":14947,"inseln":14948,"stchen":14949,"anen":14950,"anhand":14951,"anlegen":14952,"anheim":14953,"anfertig":14954,"anständig":14955,"iede":14956,"asil":14957,"argue":14958,"atic":14959,"atoren":14960,"oured":14961,"eingehen":14962,"einiges":14963,"einschätzen":14964,"testen":14965,"techn":14966,"teuern":14967,"reide":14968,"reffen":14969,"reoid":14970,"unfortunately":14971,"unfisch":14972,"unigst":14973,"unedle":14974,"unheilbar":14975,"gehü":14976,"gezü":14977,"gebern":14978,"geduldig":14979,"gestartet":14980,"thema":14981,"bete":14982,"begehen":14983,"beorder":14984,"bedarf":14985,"beiste":14986,"below":14987,"befand":14988,"betreten":14989,"belangt":14990,"behandle":14991,"belohnt":14992,"bewiesen":14993,"behindert":14994,"hemd":14995,"hemden":14996,"leere":14997,"leisen":14998,"leuro":14999,"seum":15000,"selige":15001,"deste":15002,"hackt":15003,"istischen":15004,"albert":15005,"zuwider":15006,"zugewand":15007,"zugeteilt":15008,"schern":15009,"schow":15010,"schick":15011,"schafter":15012,"schale":15013,"verun":15014,"versicht":15015,"verlegen":15016,"vermä":15017,"vergn":15018,"vertreten":15019,"verlief":15020,"verschluss":15021,"verteilt":15022,"verrichten":15023,"verwü":15024,"verächt":15025,"verirr":15026,"verarbeitung":15027,"verwundet":15028,"mea":15029,"meiste":15030,"meeres":15031,"igned":15032,"nodded":15033,"dieweil":15034,"imassen":15035,"genden":15036,"allmählich":15037,"robo":15038,"urspr":15039,"urteile":15040,"ampf":15041,"abben":15042,"abdruck":15043,"abbie":15044,"abgezogen":15045,"abschaffen":15046,"abscheu":15047,"dober":15048,"Marion":15049,"ckigen":15050,"ckiert":15051,"Themen":15052,"undry":15053,"undweise":15054,"unddreißig":15055,"lodie":15056,"lotion":15057,"sowjet":15058,"bene":15059,"trennten":15060,"aufhe":15061,"auffallen":15062,"umge":15063,"umber":15064,"umhin":15065,"ida":15066,"idy":15067,"spy":15068,"spaß":15069,"etab":15070,"goß":15071,"tizen":15072,"tivis":15073,"berichten":15074,"ürtel":15075,"ungünst":15076,"entü":15077,"entspannen":15078,"ilharmon":15079,"Erbe":15080,"Erfol":15081,"Erkrank":15082,"steam":15083,"mitt":15084,"mität":15085,"Dieberei":15086,"indischen":15087,"ausfind":15088,"ausgegangen":15089,"aussterben":15090,"ausstoß":15091,"ausgerechnet":15092,"auswendig":15093,"ausgebucht":15094,
[...]
